<pad>	0
<unk>	0
<s>	0
</s>	0
.	-2.78317
,	-3.64751
▁the	-3.87328
▁of	-4.58389
▁आहे	-4.60313
▁	-4.68035
▁to	-4.71015
▁and	-4.71758
s	-4.72892
▁in	-4.75593
▁a	-5.11367
▁is	-5.16302
▁आणि	-5.26797
▁The	-5.29995
▁या	-5.38343
?	-5.60281
च्या	-5.66132
▁for	-5.66983
-	-5.67394
▁was	-5.70553
▁on	-5.79794
▁नाही	-5.79939
▁has	-5.81246
▁that	-5.8403
ही	-5.88552
▁आहेत	-5.95154
▁be	-5.98641
▁are	-5.9883
:	-6.04196
ing	-6.04295
▁have	-6.07541
चे	-6.08064
ला	-6.09231
त	-6.09545
▁will	-6.10087
चा	-6.16356
च	-6.17208
'	-6.20105
▁with	-6.2033
▁not	-6.20904
ी	-6.21667
▁(	-6.22317
▁this	-6.22594
▁I	-6.24203
▁हे	-6.26021
▁by	-6.26154
▁it	-6.26685
ची	-6.27358
)	-6.29184
ed	-6.3406
▁been	-6.38632
▁at	-6.41404
ा	-6.42256
ने	-6.43218
▁also	-6.45565
▁from	-6.45904
▁होते	-6.47773
▁ते	-6.48089
▁व	-6.50645
▁He	-6.51087
▁India	-6.51742
▁his	-6.5208
े	-6.52271
▁were	-6.53094
▁as	-6.54718
▁हा	-6.55607
▁यांनी	-6.55659
▁केली	-6.56608
▁said	-6.6414
▁करण्यात	-6.65035
▁he	-6.6517
▁तर	-6.6696
▁असे	-6.69092
▁It	-6.703
▁you	-6.7052
▁एक	-6.70846
मध्ये	-6.72029
▁had	-6.72177
▁But	-6.74182
▁ही	-6.75666
▁पण	-6.77403
▁Minister	-6.78362
▁केले	-6.78598
▁This	-6.78672
▁काही	-6.8022
▁मी	-6.82529
ून	-6.83283
▁A	-6.86666
▁केला	-6.87209
▁an	-6.9083
▁होती	-6.90871
▁आले	-6.95612
वर	-6.97292
▁all	-6.97482
▁मात्र	-6.98576
▁तो	-6.99087
▁होता	-7.01231
▁their	-7.04621
▁त्यांनी	-7.04931
▁police	-7.05119
▁‘	-7.06186
d	-7.09542
▁we	-7.09872
▁BJP	-7.10679
स	-7.11964
t	-7.11985
▁काय	-7.12716
ाच्या	-7.14211
ाची	-7.14398
▁आपल्या	-7.14518
▁त्यांना	-7.15417
▁झाले	-7.15632
▁की	-7.1605
▁त्या	-7.16839
▁people	-7.16964
ात	-7.17321
ly	-7.18311
▁का	-7.18717
ाचे	-7.18815
ील	-7.19343
▁they	-7.1951
ाचा	-7.20372
▁“	-7.21104
▁सर्व	-7.21297
▁झाला	-7.21595
▁आली	-7.22351
▁them	-7.2257
▁government	-7.22656
e	-7.22744
▁In	-7.22948
▁no	-7.23262
▁झाली	-7.25658
▁can	-7.27266
न	-7.27973
▁one	-7.28582
!	-7.29483
क	-7.29769
▁We	-7.29773
’	-7.29856
▁Modi	-7.30597
▁who	-7.31524
साठी	-7.31579
▁आपण	-7.3232
."	-7.33192
▁त्यामुळे	-7.34834
▁him	-7.35192
▁यांच्या	-7.35536
▁do	-7.36735
▁करत	-7.36889
▁against	-7.37169
▁time	-7.37493
▁about	-7.38104
▁पंतप्रधान	-7.38559
▁मला	-7.39087
ाला	-7.39736
▁there	-7.40775
▁her	-7.41254
▁two	-7.41526
▁माहिती	-7.41636
▁अनेक	-7.42066
▁up	-7.4236
▁case	-7.42813
▁They	-7.42831
▁or	-7.43059
▁आला	-7.43472
▁What	-7.43578
▁There	-7.4429
▁ती	-7.44756
▁film	-7.45655
ले	-7.45765
▁out	-7.46088
▁मोदी	-7.47041
▁-	-7.47266
▁"""	-7.47601
ं	-7.47712
▁दाखल	-7.47915
ली	-7.48472
▁our	-7.48602
▁Indian	-7.49028
▁दोन	-7.49052
▁S	-7.49921
▁असून	-7.51635
▁Congress	-7.51707
▁your	-7.52114
▁first	-7.52918
▁भारतीय	-7.53817
▁after	-7.54126
▁तसेच	-7.54533
▁However	-7.54762
▁त्यांच्या	-7.55106
▁Prime	-7.5536
▁over	-7.56519
▁एका	-7.5797
▁'	-7.58016
▁म्हणून	-7.58193
▁दिली	-7.58791
ाने	-7.58849
▁काम	-7.60291
er	-7.60561
▁त्याला	-7.61209
▁आम्ही	-7.61608
▁which	-7.62078
▁सुरू	-7.62716
▁अशी	-7.63187
ांना	-7.63501
▁state	-7.64279
▁other	-7.65063
ित	-7.65586
र	-7.66069
तील	-7.66681
▁पोलिसांनी	-7.66754
य	-7.67265
▁should	-7.67815
▁its	-7.68016
▁so	-7.68451
▁what	-7.69057
म	-7.6907
▁She	-7.69165
y	-7.69383
▁"	-7.69419
ल	-7.69758
▁would	-7.70747
ल्या	-7.7091
▁my	-7.71041
▁चित्रपट	-7.73653
▁सांगितले	-7.75208
ांच्या	-7.75722
▁So	-7.75896
▁”	-7.76074
▁being	-7.76192
▁country	-7.76884
▁भारत	-7.77168
▁असा	-7.77717
▁but	-7.77877
▁Mumbai	-7.78101
▁Singh	-7.78167
a	-7.79189
▁होत	-7.79258
▁into	-7.79275
▁more	-7.79514
▁Police	-7.79919
ांची	-7.80821
▁Delhi	-7.81277
▁दिले	-7.81831
▁करून	-7.81992
▁Narendra	-7.8259
▁Rs	-7.82776
▁दिल्ली	-7.82797
▁त्याच्या	-7.83145
▁राज्य	-7.85099
▁And	-7.85148
al	-7.85573
▁day	-7.85796
▁very	-7.86238
▁made	-7.86448
▁आता	-7.86849
▁did	-7.87631
ातील	-7.87729
▁me	-7.87798
ावर	-7.8851
▁देखील	-7.88572
मधील	-7.88616
▁मुंबई	-7.8918
▁पोलीस	-7.89344
▁नरेंद्र	-7.89749
्या	-7.8994
▁taken	-7.90623
▁मुख्यमंत्री	-7.90751
▁म्हणाले	-7.91238
▁होणार	-7.91547
▁किंवा	-7.91836
ता	-7.92011
ांनी	-7.92131
▁us	-7.92654
▁many	-7.92771
▁when	-7.93129
▁Chief	-7.93516
▁these	-7.93518
▁त्यानंतर	-7.93719
▁काँग्रेस	-7.94026
▁work	-7.94047
▁new	-7.94278
▁then	-7.94923
▁अधिक	-7.9517
▁तुम्ही	-7.95938
▁अशा	-7.96762
▁यांना	-7.9701
▁Gandhi	-7.97072
▁:	-7.97548
▁Pakistan	-7.97574
▁तेव्हा	-7.97679
▁करण्यासाठी	-7.97993
▁Maharashtra	-7.98221
▁three	-7.98271
▁मृत्यू	-7.98368
▁निर्णय	-7.98591
▁any	-7.98835
▁त्याने	-7.98937
ना	-7.99553
▁न	-7.99768
▁कारण	-7.99935
▁लोक	-8.00226
▁like	-8.0031
▁सध्या	-8.00535
▁God	-8.0118
▁""	-8.01199
▁येथे	-8.01953
▁तीन	-8.02075
▁खूप	-8.02607
▁देण्यात	-8.0317
▁नाहीत	-8.03313
▁some	-8.03603
▁under	-8.03777
▁take	-8.04156
शी	-8.04238
▁सरकार	-8.04665
n	-8.0495
▁minister	-8.05282
▁incident	-8.05644
▁गांधी	-8.05693
i	-8.06045
▁उत्तर	-8.0605
▁इतर	-8.06163
▁विचार	-8.0634
▁प्रयत्न	-8.06997
▁अ	-8.07197
▁she	-8.07257
▁दिला	-8.07307
ू	-8.07626
▁म्हणजे	-8.08343
▁You	-8.08398
ंना	-8.08694
▁जे	-8.08724
मुळे	-8.09311
▁get	-8.10028
▁That	-8.10299
▁जात	-8.10553
▁life	-8.10729
▁chief	-8.10798
th	-8.10975
▁करू	-8.11295
▁मदत	-8.11669
▁such	-8.11833
▁असलेल्या	-8.12767
▁उपस्थित	-8.1285
▁only	-8.1314
▁येत	-8.13144
▁आपल्याला	-8.13256
ासाठी	-8.13374
r	-8.13543
▁between	-8.15039
ट	-8.15493
ांचा	-8.15547
▁How	-8.15695
▁माजी	-8.1581
व	-8.16444
▁यावेळी	-8.16846
▁than	-8.16859
▁Khan	-8.17267
▁असल्याचे	-8.17332
▁करा	-8.17703
▁water	-8.17929
▁अध्यक्ष	-8.1815
▁well	-8.18267
▁accused	-8.18297
▁असेल	-8.18473
▁present	-8.18583
▁need	-8.18659
ांचे	-8.18726
▁कमी	-8.19039
▁होईल	-8.19693
es	-8.19899
▁too	-8.20012
in	-8.20125
m	-8.20215
▁arrested	-8.20361
▁good	-8.21108
▁पूर्ण	-8.2116
▁during	-8.21559
▁world	-8.22075
▁Jehovah	-8.22362
▁last	-8.22508
▁come	-8.22586
ड	-8.23024
▁जखमी	-8.2317
▁No	-8.23261
▁यांची	-8.23765
▁New	-8.23868
्स	-8.239
▁भाजप	-8.2406
▁असते	-8.24441
▁परंतु	-8.24507
चं	-8.24597
▁म्हटले	-8.25399
▁त्यात	-8.2629
▁माझ्या	-8.26728
▁मध्ये	-8.26746
प	-8.26878
▁know	-8.27225
या	-8.27273
I	-8.27721
▁नवी	-8.27793
▁court	-8.28286
▁ज्या	-8.28296
S	-8.28733
▁years	-8.28755
▁त्याचा	-8.28916
▁चर्चा	-8.2893
▁President	-8.29564
▁2	-8.29776
ब	-8.29842
▁झालेल्या	-8.29847
▁प्रत्येक	-8.30095
▁Sena	-8.30101
▁injured	-8.30494
▁per	-8.30619
▁अटक	-8.30796
▁असं	-8.30876
us	-8.31237
▁here	-8.31797
▁meeting	-8.32102
▁घेतली	-8.32363
▁hospital	-8.32413
ीत	-8.32611
▁राहुल	-8.32668
▁आज	-8.32703
▁All	-8.32732
▁दोन्ही	-8.32898
▁yet	-8.32917
▁येणार	-8.32961
▁M	-8.33169
िक	-8.33535
▁those	-8.33713
▁पुन्हा	-8.33729
▁if	-8.338
▁party	-8.34294
▁त्यांची	-8.34359
▁यात	-8.34576
▁केंद्रीय	-8.34727
▁पोलिस	-8.34927
▁place	-8.35169
▁make	-8.35183
▁Rahul	-8.3522
▁पाहिजे	-8.35386
▁यामुळे	-8.35419
▁am	-8.35485
▁करणे	-8.36238
कडून	-8.36448
▁took	-8.36804
ण	-8.36865
▁जास्त	-8.37453
▁help	-8.37526
▁नाव	-8.37664
▁त्याची	-8.37891
▁चार	-8.37914
▁family	-8.38402
▁1	-8.38459
▁Court	-8.38734
ज	-8.39083
▁स	-8.39569
▁कोटी	-8.39622
▁गुन्हा	-8.39957
▁मंत्री	-8.40088
▁just	-8.4013
▁अद्याप	-8.40219
▁10	-8.40308
▁PM	-8.40377
▁could	-8.40444
▁registered	-8.40582
▁shall	-8.40691
▁number	-8.40752
ो	-8.41057
▁घेतला	-8.41142
▁children	-8.41196
ंच्या	-8.41401
▁सर्वात	-8.41615
an	-8.41682
▁while	-8.41731
▁समावेश	-8.41891
▁वेळ	-8.42074
▁सरकारने	-8.42125
▁तुम्हाला	-8.42292
▁सुरु	-8.42398
▁त्यांचे	-8.42487
▁दरम्यान	-8.42737
▁As	-8.42799
▁निर्माण	-8.42872
▁तपास	-8.42903
▁भाग	-8.43057
कडे	-8.43159
▁प्रश्न	-8.43443
▁media	-8.43797
▁P	-8.43868
),	-8.43901
▁through	-8.44039
▁राष्ट्रीय	-8.4418
▁Pradesh	-8.44499
▁leader	-8.44559
▁करणार	-8.44559
▁मग	-8.44576
▁गोष्टी	-8.44775
▁social	-8.44872
▁Shri	-8.44873
ंनी	-8.44936
▁विजय	-8.45184
▁Shiv	-8.45648
▁तयार	-8.45738
st	-8.45786
नंतर	-8.45808
▁खान	-8.45984
▁go	-8.46014
▁Sabha	-8.46061
c	-8.46107
▁मुख्य	-8.46614
▁For	-8.46639
▁तरी	-8.46896
▁व्यक्त	-8.46982
▁both	-8.47033
▁president	-8.47051
▁days	-8.47209
▁गरज	-8.47283
▁5	-8.47322
▁Kumar	-8.47496
▁man	-8.47729
▁before	-8.47746
▁मागणी	-8.4793
▁given	-8.48232
▁even	-8.4837
▁गेले	-8.48374
▁करण्याची	-8.48716
▁crore	-8.48987
▁करतो	-8.49061
▁On	-8.49107
▁रुग्णालयात	-8.49181
▁matter	-8.49242
ीय	-8.49361
▁won	-8.49367
▁Shah	-8.49451
▁त्याचे	-8.49588
▁होतो	-8.49616
▁down	-8.49692
▁four	-8.49922
▁आरोप	-8.49931
▁how	-8.49959
▁आहोत	-8.50025
▁याबाबत	-8.50046
▁वापर	-8.50157
▁केंद्र	-8.50389
▁दिवस	-8.50588
▁Jesus	-8.50618
▁decision	-8.50697
▁गेल्या	-8.51275
▁यांचा	-8.51472
▁भूमिका	-8.51676
▁नेते	-8.51785
▁second	-8.51871
▁यहोवा	-8.51902
▁former	-8.52132
▁१	-8.5244
▁शकतो	-8.5269
▁B	-8.52788
▁लोकांना	-8.52941
▁त्यांचा	-8.53132
▁year	-8.53177
नी	-8.53181
▁पुढे	-8.53212
▁3	-8.53279
▁Government	-8.53286
▁मोठ्या	-8.53372
▁regard	-8.53375
▁way	-8.53525
▁died	-8.53879
re	-8.54105
▁most	-8.54225
कर	-8.54495
▁His	-8.54797
▁much	-8.54859
▁farmers	-8.55568
▁home	-8.55583
ic	-8.55688
णे	-8.55717
▁लाख	-8.55784
▁going	-8.55861
▁different	-8.55899
▁death	-8.55918
▁same	-8.55976
▁प्रदेश	-8.56092
ंची	-8.56159
▁याचा	-8.56234
▁State	-8.56733
▁येईल	-8.568
▁होऊ	-8.57039
ers	-8.57061
द	-8.57264
▁विविध	-8.57319
▁जण	-8.57336
▁back	-8.57393
पासून	-8.57526
▁घटना	-8.57838
नं	-8.58064
▁district	-8.5811
▁कारवाई	-8.58565
▁केलेल्या	-8.5874
▁spot	-8.5877
▁part	-8.58774
▁केवळ	-8.58788
▁does	-8.58826
▁may	-8.58839
▁पाच	-8.58886
▁आपले	-8.58991
h	-8.59016
▁देश	-8.59062
▁भेट	-8.59169
▁असतात	-8.59175
▁भारतात	-8.59263
▁आणखी	-8.59338
▁सेवा	-8.59492
▁women	-8.59495
▁dont	-8.59668
▁city	-8.5987
ि	-8.60409
▁lakh	-8.60465
▁पाणी	-8.60833
▁यासाठी	-8.60871
▁Sharma	-8.61017
▁विकास	-8.61022
▁महिला	-8.61219
▁बदल	-8.61322
▁T	-8.61409
▁प्रकार	-8.61567
▁Union	-8.61668
▁याची	-8.61904
▁आनंद	-8.61968
▁next	-8.61978
▁killed	-8.62227
▁प्रमुख	-8.6229
g	-8.62302
▁came	-8.62337
▁आवश्यक	-8.62369
▁due	-8.62701
▁started	-8.62719
▁संपूर्ण	-8.63071
▁National	-8.63196
▁set	-8.63371
लं	-8.63406
b	-8.64216
▁After	-8.64414
▁where	-8.64488
▁जाते	-8.64565
▁want	-8.64591
▁never	-8.6473
▁still	-8.6484
▁important	-8.64952
▁every	-8.64965
▁Why	-8.65097
ळ	-8.65239
▁’	-8.65413
▁Kashmir	-8.65446
▁C	-8.65591
▁must	-8.65622
▁वाढ	-8.66146
▁love	-8.66197
▁मोठा	-8.66306
▁15	-8.66323
l	-8.66366
▁others	-8.66449
▁students	-8.6671
▁right	-8.66959
्	-8.6705
▁निवडणूक	-8.6722
▁later	-8.67227
▁issue	-8.67284
▁यांचे	-8.67375
▁far	-8.67474
▁ठिकाणी	-8.6752
▁team	-8.67715
▁held	-8.67922
▁among	-8.68112
सोबत	-8.68114
ri	-8.68132
▁action	-8.68562
▁नवीन	-8.68584
▁few	-8.68595
▁fire	-8.68688
▁elections	-8.68704
वा	-8.68786
▁G	-8.69149
▁Kapoor	-8.69293
डी	-8.69396
ar	-8.69468
""	-8.69491
or	-8.69532
▁see	-8.69623
सह	-8.69956
▁देव	-8.70057
▁done	-8.70064
▁things	-8.70291
▁E	-8.70504
▁स्पष्ट	-8.70568
▁पहिल्या	-8.7075
▁wife	-8.70845
▁name	-8.70907
▁पक्ष	-8.70953
/	-8.70956
▁रेल्वे	-8.71015
▁now	-8.71243
▁चौकशी	-8.71301
▁नंतर	-8.71316
▁situation	-8.71376
▁येथील	-8.71536
ंचा	-8.7185
िंग	-8.71865
▁सिंह	-8.71871
ांवर	-8.72132
▁गंभीर	-8.72141
▁आरोग्य	-8.72302
▁son	-8.72381
री	-8.72466
▁जाणार	-8.7256
फ	-8.7259
▁करीत	-8.72659
▁विशेष	-8.72714
पर्यंत	-8.72727
▁today	-8.72795
ांमध्ये	-8.72828
▁power	-8.73331
▁become	-8.73351
▁तिला	-8.73518
▁अजून	-8.73578
▁seen	-8.73645
▁हजार	-8.73793
▁house	-8.7381
▁several	-8.73834
▁If	-8.73947
▁Lok	-8.73995
▁जाहीर	-8.74258
▁says	-8.74336
ख	-8.74398
▁each	-8.74446
o	-8.7449
▁टक्के	-8.7457
▁राष्ट्रवादी	-8.74638
▁say	-8.74685
ामुळे	-8.74714
B	-8.7477
▁health	-8.74776
▁Bible	-8.74814
▁got	-8.74892
▁आम्हाला	-8.75109
▁soon	-8.75343
▁होत्या	-8.75568
A	-8.75653
▁सोशल	-8.75681
▁D	-8.7576
▁करतात	-8.75787
▁घेऊन	-8.7583
▁यामध्ये	-8.75893
▁शिक्षण	-8.76095
▁World	-8.76437
▁found	-8.76438
▁सुरुवात	-8.76527
▁आमदार	-8.76641
C	-8.76877
▁भर	-8.76889
▁five	-8.77083
▁योग्य	-8.77246
▁निवड	-8.77799
▁attack	-8.78021
▁तू	-8.78194
▁went	-8.78263
▁off	-8.78423
▁ना	-8.78442
▁used	-8.78568
▁12	-8.78592
▁20	-8.78694
▁करण्याचा	-8.78756
ion	-8.78901
ह	-8.78948
en	-8.79073
▁leaders	-8.79194
▁4	-8.79206
ation	-8.79424
श	-8.7944
▁बंद	-8.79476
▁तुमच्या	-8.79482
▁video	-8.79569
▁शकत	-8.79655
▁movie	-8.79775
▁ठाकरे	-8.79875
▁Bollywood	-8.8001
▁NCP	-8.80031
▁उपलब्ध	-8.80097
▁तिच्या	-8.8021
ग	-8.80218
▁At	-8.80269
▁२	-8.8027
▁आमच्या	-8.80468
▁चित्रपटात	-8.80517
▁लक्ष	-8.80821
▁देशात	-8.80895
▁occasion	-8.80918
▁संघ	-8.81016
▁असतो	-8.8132
▁करता	-8.81458
▁परिस्थिती	-8.8149
▁आ	-8.81652
▁lot	-8.8236
▁area	-8.82656
▁however	-8.82778
▁जागा	-8.82838
ामध्ये	-8.82853
▁कपूर	-8.82885
▁2019	-8.82906
▁फार	-8.83064
▁नये	-8.83086
▁because	-8.83173
▁सिनेमा	-8.8319
▁development	-8.83322
▁When	-8.83376
▁प्र	-8.83409
▁आर्थिक	-8.83465
▁शोध	-8.83771
▁शकते	-8.83778
▁K	-8.83836
ve	-8.84051
▁called	-8.84196
▁great	-8.84235
▁परिणाम	-8.84455
▁कोण	-8.84488
्य	-8.84506
▁आपला	-8.84557
▁Do	-8.84699
▁केलं	-8.84763
▁कोणत्याही	-8.8509
▁कोणती	-8.85289
."""	-8.85394
▁These	-8.8564
▁कार्य	-8.85719
ंचे	-8.85875
▁फक्त	-8.86031
▁use	-8.86172
▁along	-8.86216
▁बाहेर	-8.86321
▁सर्वोच्च	-8.86445
▁विश्वास	-8.86447
बद्दल	-8.86522
▁महाराष्ट्र	-8.86621
u	-8.86681
▁further	-8.86862
▁ह्या	-8.86959
▁शर्मा	-8.86962
▁उच्च	-8.86995
▁न्यायालयाने	-8.87066
▁Ram	-8.87236
▁around	-8.87248
मी	-8.87517
▁high	-8.877
▁पवार	-8.87807
▁19	-8.87977
▁another	-8.87981
▁शक्यता	-8.88434
▁कुमार	-8.88451
▁complaint	-8.88521
▁घेतले	-8.88638
▁away	-8.88823
▁अधिकारी	-8.88823
ु	-8.88828
▁जाईल	-8.88831
▁men	-8.88921
▁money	-8.88972
▁filed	-8.89277
▁actor	-8.89985
▁members	-8.90037
▁फोटो	-8.90115
▁पुढील	-8.90166
▁ब	-8.90202
▁केल्या	-8.90221
ते	-8.90253
▁तक्रार	-8.90336
▁प्रेम	-8.90398
जी	-8.90584
▁अभिनेत्री	-8.90705
▁सु	-8.9075
▁Thackeray	-8.90837
▁Many	-8.90858
▁N	-8.91068
▁सामना	-8.91121
▁One	-8.91133
am	-8.91222
k	-8.91279
▁क	-8.91294
T	-8.91335
पणे	-8.91399
▁यावर	-8.91433
▁keep	-8.91538
▁परत	-8.91544
▁प्रमाणात	-8.91564
▁US	-8.91591
▁?	-8.91673
la	-8.91814
▁आपली	-8.91865
▁long	-8.91874
▁काळात	-8.91943
▁again	-8.9198
▁प्रवेश	-8.92051
▁support	-8.92154
▁across	-8.92161
▁आंतरराष्ट्रीय	-8.92313
▁पुरस्कार	-8.92361
▁father	-8.92474
▁लागले	-8.92511
▁फडणवीस	-8.9259
▁role	-8.92597
▁An	-8.92598
▁प्रकरणी	-8.92653
▁यश	-8.92663
▁पाटील	-8.92663
▁त्यासाठी	-8.92684
▁दुसऱ्या	-8.92894
▁happened	-8.92999
ra	-8.93
▁पत्नी	-8.93109
upreme	-8.93173
el	-8.93194
▁including	-8.93213
ुन	-8.9324
▁घेत	-8.93288
▁un	-8.93521
▁Some	-8.93569
▁treatment	-8.93629
▁currently	-8.93655
सा	-8.93716
▁win	-8.93738
▁give	-8.93902
▁लवकरच	-8.93932
▁together	-8.94075
▁उपचार	-8.94184
▁रुपये	-8.94375
▁पाकिस्तान	-8.94419
▁त्यावर	-8.94511
▁नव्हते	-8.94524
▁जीवन	-8.94537
ेल	-8.94538
▁persons	-8.94548
P	-8.94572
▁जो	-8.94688
▁मोठी	-8.94831
able	-8.95026
▁देत	-8.95255
ास	-8.95403
▁post	-8.95411
▁अमित	-8.95454
▁उमेदवार	-8.95539
▁खासदार	-8.95549
▁कर	-8.95712
▁संधी	-8.96039
▁political	-8.96206
▁100	-8.96263
le	-8.96473
▁जर	-8.96492
▁आरोपी	-8.96497
▁already	-8.96497
▁वेळी	-8.96509
▁अर्थ	-8.96549
▁asked	-8.96575
▁R	-8.96581
▁क्रिकेट	-8.9665
▁why	-8.96805
,""	-8.97039
▁Gujarat	-8.97047
▁संबंध	-8.97113
▁re	-8.97144
▁तिने	-8.97157
▁question	-8.97208
▁३	-8.97337
▁आलं	-8.97397
▁Fadnavis	-8.97421
▁आई	-8.97556
▁प्रकल्प	-8.97576
▁11	-8.97585
▁land	-8.97588
▁राजकीय	-8.97592
▁Amit	-8.97614
▁दर	-8.977
▁राज्यात	-8.97822
it	-8.97828
▁सिंग	-8.97856
▁कधी	-8.97935
▁ताब्यात	-8.98042
रा	-8.98102
▁18	-8.98275
▁भारताच्या	-8.98406
▁body	-8.9851
▁Who	-8.98688
▁station	-8.98734
p	-8.98815
▁Pawar	-8.98824
▁woman	-8.98841
▁मार्ग	-8.98958
▁किती	-8.98984
▁धाव	-8.98999
▁Gods	-8.99062
▁Ministry	-8.99137
▁विधानसभा	-8.99452
▁प्रकरण	-8.99471
का	-8.99605
▁मिळाले	-8.99813
तो	-9.00102
5	-9.00154
▁शहर	-9.00166
▁सदस्य	-9.00329
▁lead	-9.00334
▁own	-9.00476
▁To	-9.00768
▁match	-9.00828
▁वाद	-9.0094
▁गेला	-9.00971
▁order	-9.00997
▁करण्यास	-9.01427
▁information	-9.01688
▁इंडिया	-9.01777
▁West	-9.01899
▁डॉ	-9.01948
▁mother	-9.01965
झ	-9.01971
▁एकूण	-9.02341
ti	-9.02621
▁announced	-9.02679
ातून	-9.02703
ण्यात	-9.02863
▁countries	-9.02987
▁cent	-9.03033
▁कसे	-9.0304
li	-9.03043
▁since	-9.03138
▁अभिनेता	-9.03327
▁योजना	-9.03498
▁received	-9.03505
▁hand	-9.03563
▁बायबल	-9.03625
se	-9.03764
f	-9.04046
▁पार	-9.0422
na	-9.04418
दा	-9.04443
▁Two	-9.04483
णाऱ्या	-9.04509
▁event	-9.04551
▁आदेश	-9.04654
▁जागतिक	-9.04655
▁एकत्र	-9.0479
▁Kohli	-9.04812
▁घेण्यात	-9.05025
▁seats	-9.05105
▁अतिशय	-9.05136
▁देवेंद्र	-9.05139
▁50	-9.05237
on	-9.05246
▁घर	-9.05281
देखील	-9.05359
मधून	-9.05468
▁Then	-9.05513
▁भागात	-9.05549
▁special	-9.05598
▁द	-9.0563
▁sent	-9.05808
▁होतं	-9.06086
▁look	-9.06196
▁accident	-9.06245
▁vario	-9.06262
▁Test	-9.06299
▁म	-9.06598
▁always	-9.06651
▁Jehovahs	-9.06823
▁संख्या	-9.06853
▁दिवशी	-9.06886
▁शेअर	-9.06979
▁घोषणा	-9.07161
G	-9.07228
The	-9.07334
▁शिवसेना	-9.07426
▁जी	-9.07658
▁Party	-9.0768
▁14	-9.08028
▁५	-9.08118
▁लोकसभा	-9.08191
▁गोष्ट	-9.0823
▁म्हणाला	-9.08232
▁असताना	-9.08306
▁के	-9.08472
▁नव्हता	-9.08534
▁public	-9.08614
▁समोर	-9.08731
▁सुरक्षा	-9.0876
▁करताना	-9.08965
▁investigation	-9.09049
▁series	-9.09055
▁person	-9.09185
▁याप्रकरणी	-9.09239
▁सहभागी	-9.09244
▁put	-9.09252
▁change	-9.09312
▁नव्हती	-9.09402
▁People	-9.09777
▁parents	-9.09814
▁reported	-9.09843
▁वि	-9.09914
▁High	-9.09925
▁Devendra	-9.09928
▁Both	-9.09935
▁रोजी	-9.09984
▁नका	-9.10053
▁भारताने	-9.10119
▁जेव्हा	-9.10144
▁My	-9.10473
▁South	-9.10645
▁माझा	-9.10671
▁देशातील	-9.10836
▁think	-9.10924
▁खर्च	-9.10942
▁Jammu	-9.10995
▁आतापर्यंत	-9.11042
▁राज	-9.11149
M	-9.11219
ंवर	-9.11421
▁election	-9.1144
▁16	-9.1144
▁Indias	-9.11631
▁क्षेत्रात	-9.11647
▁खेळ	-9.11698
▁told	-9.11878
णार	-9.11878
▁cannot	-9.11883
D	-9.11886
▁road	-9.11911
▁times	-9.1207
▁करुन	-9.12112
तून	-9.12123
▁कर्णधार	-9.12194
▁Australia	-9.12227
▁China	-9.12299
▁final	-9.12318
▁30	-9.12319
▁large	-9.1236
▁दक्षिण	-9.1239
▁दिसत	-9.1249
ness	-9.12514
▁कायम	-9.1269
▁मिळाली	-9.12772
▁करायला	-9.12784
▁available	-9.12954
▁१९	-9.13018
▁समस्या	-9.13105
-19	-9.13203
▁F	-9.13317
▁working	-9.13373
▁समिती	-9.13386
▁states	-9.13394
▁end	-9.1341
▁अत्यंत	-9.13496
▁lost	-9.13497
▁ऑफ	-9.13502
▁आल्या	-9.13618
▁visit	-9.13652
▁shared	-9.13718
est	-9.13729
▁शकतात	-9.1379
पेक्षा	-9.13874
▁2018	-9.13887
▁भाजपचे	-9.14242
▁शब्द	-9.14244
▁वाहतूक	-9.14428
▁मीडियावर	-9.14429
▁जम्मू	-9.14429
▁show	-9.14481
▁news	-9.14572
ll	-9.14595
▁report	-9.14995
▁अन्य	-9.14998
ांत	-9.15005
▁दिलेल्या	-9.15319
▁left	-9.15329
ul	-9.15458
ta	-9.15628
स्ट	-9.15689
▁१०	-9.15722
▁त्यावेळी	-9.1575
▁MP	-9.15788
▁नुकसान	-9.15885
▁अगदी	-9.15886
▁काळजी	-9.15902
ंमध्ये	-9.15947
द्वारे	-9.16038
▁लागला	-9.1612
▁needs	-9.16158
▁known	-9.16188
▁top	-9.16198
ई	-9.16247
▁विराट	-9.16258
▁देवाच्या	-9.16278
▁स्वत	-9.16341
il	-9.16368
▁Assembly	-9.16445
▁cricket	-9.16564
▁पराभव	-9.16625
▁गेली	-9.16673
▁25	-9.16675
▁officials	-9.16731
▁अपघात	-9.16785
▁added	-9.17062
थ	-9.17116
ive	-9.17178
बाबत	-9.1723
ायला	-9.17241
▁करण्याचे	-9.17262
1	-9.17377
▁third	-9.17418
▁शहा	-9.17516
▁संरक्षण	-9.17568
▁घरी	-9.17618
▁didnt	-9.17626
▁ओळख	-9.17643
अ	-9.17979
ंग	-9.1802
▁जाऊ	-9.18078
▁घटनास्थळी	-9.18145
लेल्या	-9.18228
▁खेळाडू	-9.18252
▁लहान	-9.18334
▁४	-9.18354
▁राम	-9.18387
▁घटने	-9.18403
▁बस	-9.18451
▁इ	-9.18453
▁doing	-9.18462
▁8	-9.18693
▁जिल्हा	-9.18715
वि	-9.18849
▁आलेल्या	-9.18961
▁project	-9.19031
▁करणाऱ्या	-9.19084
▁Dr	-9.19242
ur	-9.19289
▁Virat	-9.19309
▁माझी	-9.19354
▁play	-9.19366
▁security	-9.19514
▁law	-9.19559
▁ख	-9.19976
▁सहा	-9.20116
▁car	-9.20326
▁13	-9.20327
man	-9.20353
▁करावा	-9.20392
▁total	-9.20584
▁17	-9.20614
▁saying	-9.20634
▁व्यक्ती	-9.20728
▁विमान	-9.20781
▁p	-9.20901
▁toward	-9.2092
▁reason	-9.2093
▁काळ	-9.20966
▁नोंद	-9.2101
▁संबंधित	-9.21132
टी	-9.21175
▁जातो	-9.21179
▁nothing	-9.21237
2	-9.2137
▁प्रवास	-9.21433
ती	-9.21457
▁school	-9.21554
मा	-9.21661
▁immediately	-9.21847
▁सामन्यात	-9.2199
▁माझे	-9.22073
▁connection	-9.22229
▁क्षेत्र	-9.22303
▁2020	-9.22342
▁व्हिडिओ	-9.2242
ांसाठी	-9.22452
▁6	-9.22495
▁शक्य	-9.22565
सी	-9.22634
▁cases	-9.22727
▁झाल्या	-9.22859
▁taking	-9.22873
▁विषय	-9.22992
णी	-9.2301
▁national	-9.23149
▁Former	-9.23223
▁मिळेल	-9.23224
N	-9.23237
▁/	-9.2338
▁best	-9.23395
▁टीका	-9.23431
▁process	-9.23493
▁वर	-9.23515
▁L	-9.23608
▁CM	-9.23622
▁Meanwhile	-9.23625
▁With	-9.23649
▁तेथे	-9.23655
▁directed	-9.23666
ंत	-9.23676
वे	-9.23687
▁मे	-9.2381
▁became	-9.2382
▁हात	-9.23889
▁heart	-9.24292
▁जबाबदारी	-9.2433
▁daughter	-9.24387
▁६	-9.24412
▁स्पर्धेत	-9.24482
▁V	-9.24533
ए	-9.24548
▁de	-9.24603
▁करार	-9.24616
▁making	-9.24674
▁वाढत	-9.24713
▁रुग्ण	-9.24845
▁बॉलिवूड	-9.24899
▁following	-9.24939
▁system	-9.24988
▁न्यायालयात	-9.25011
▁सलमान	-9.25051
▁unto	-9.25121
▁राजा	-9.25161
▁अनुभव	-9.25857
▁येते	-9.2593
▁त्यांच्यावर	-9.25953
7	-9.26004
▁ए	-9.26068
▁ठार	-9.26267
▁कसोटी	-9.2634
▁टीम	-9.2637
▁lives	-9.26454
▁मुलगा	-9.26474
▁रंग	-9.2648
▁मुली	-9.26481
▁reached	-9.2658
▁areas	-9.26621
▁राष्ट्रपती	-9.26625
▁suicide	-9.26888
▁Rohit	-9.26888
▁लागेल	-9.26891
▁Yadav	-9.27096
▁कार्यक्रम	-9.27096
▁जोरदार	-9.27098
▁big	-9.27098
▁face	-9.27215
▁जवान	-9.27276
▁girl	-9.27285
▁near	-9.27302
▁निर्मिती	-9.27346
kar	-9.27481
▁संजय	-9.27722
▁मोठे	-9.27761
▁problem	-9.27892
के	-9.28153
R	-9.28184
▁नव्या	-9.28238
▁लक्षात	-9.28268
▁ठाण्यात	-9.28277
▁result	-9.28351
▁7	-9.28382
▁let	-9.28398
▁एकदा	-9.28508
▁अर्ज	-9.28519
▁played	-9.28545
▁Salman	-9.28563
ist	-9.28722
▁rushed	-9.2879
▁runs	-9.28826
▁Patil	-9.28891
w	-9.28916
▁रोहित	-9.28987
▁नि	-9.29037
.”	-9.29171
▁चांगले	-9.29246
पूर	-9.29413
▁विरोधात	-9.29449
▁Pune	-9.29534
▁तरीही	-9.2963
▁informed	-9.29642
▁निवडणुकीत	-9.29713
▁local	-9.29803
▁सुमारे	-9.29838
▁true	-9.29839
K	-9.29993
▁earth	-9.30054
▁सत्य	-9.30063
▁भारताचा	-9.30182
ment	-9.30352
▁जग	-9.30373
▁विरोध	-9.30493
▁without	-9.30599
▁dead	-9.30626
ro	-9.30667
▁21	-9.30668
▁happy	-9.30698
▁अभ्यास	-9.30757
▁सात	-9.30774
▁दिसून	-9.30936
▁murder	-9.30982
▁Uttar	-9.3113
▁Karnataka	-9.31145
▁करावे	-9.31162
▁इथे	-9.31349
▁कामगिरी	-9.31355
▁प्रक्रिया	-9.31369
▁करते	-9.31559
▁b	-9.31574
▁bring	-9.31585
▁गुजरात	-9.31723
▁च्या	-9.3199
▁week	-9.32034
▁आघाडी	-9.32055
sh	-9.3208
▁list	-9.32118
▁ऑस्ट्रेलिया	-9.32153
▁विद्यार्थी	-9.32208
▁senior	-9.32219
▁उद्धव	-9.32219
▁वाट	-9.32358
▁वाटते	-9.3243
▁शकता	-9.32485
▁प	-9.32561
▁films	-9.32575
ity	-9.32722
ाशी	-9.3287
▁find	-9.32871
▁book	-9.32875
▁पश्चिम	-9.33126
▁मत	-9.33132
▁CBI	-9.33378
▁१२	-9.33393
▁Be	-9.33402
▁तिथे	-9.33482
▁brought	-9.33543
▁मिळाला	-9.33556
▁2017	-9.33766
▁प्रथम	-9.33778
▁decided	-9.33794
▁care	-9.33892
▁कायदा	-9.33901
▁questions	-9.33918
▁शेतकरी	-9.33991
▁प्रसिद्ध	-9.34166
▁anything	-9.34211
▁released	-9.34299
▁start	-9.34303
▁पोलिसांना	-9.34341
▁काहीही	-9.34394
ne	-9.34546
विरोधात	-9.34671
▁live	-9.34828
▁ever	-9.3489
▁परिसरात	-9.35246
▁पर्याय	-9.35334
▁month	-9.35365
▁Bharat	-9.35374
से	-9.35473
▁मध्य	-9.35482
▁child	-9.35557
विषयी	-9.35585
▁continue	-9.35735
▁form	-9.35739
▁really	-9.35849
as	-9.35883
विरुद्ध	-9.35948
▁इच्छा	-9.36013
▁Uddhav	-9.36026
▁six	-9.36184
जवळ	-9.36375
दार	-9.36668
▁विभाग	-9.36677
▁Sanjay	-9.36699
▁हल्ला	-9.36727
▁happen	-9.36782
▁meet	-9.36789
▁मिळत	-9.36845
▁अधिकार	-9.36902
▁24	-9.36948
रे	-9.36951
▁करावी	-9.36973
▁राहणार	-9.36985
20	-9.372
▁मुंबईत	-9.37241
▁Home	-9.37416
▁entire	-9.37543
▁येशू	-9.37605
▁education	-9.37772
▁काहीच	-9.37806
▁प्रचंड	-9.37852
ावे	-9.37873
▁नियम	-9.38083
▁यादव	-9.38153
▁चांगली	-9.38184
▁यांच्यात	-9.38237
▁Bihar	-9.38284
▁कार	-9.38325
▁England	-9.38328
▁लग्न	-9.38381
▁account	-9.38402
▁based	-9.38403
▁तरुण	-9.38485
▁Tamil	-9.3855
▁लागली	-9.38565
▁सुविधा	-9.38766
▁hit	-9.38788
▁वेळा	-9.38879
▁Day	-9.38897
▁लोकांनी	-9.3893
ma	-9.38991
▁Israel	-9.39012
▁Trump	-9.39031
▁राज्यातील	-9.39074
▁past	-9.39082
▁Is	-9.39134
▁सर्वाधिक	-9.39272
बा	-9.39312
▁काश्मीर	-9.39328
▁getting	-9.39513
▁तसे	-9.39537
ण्यासाठी	-9.39559
▁तुला	-9.39632
▁young	-9.39719
▁यशस्वी	-9.39723
▁recently	-9.39767
▁कोणी	-9.39861
▁प्रमाण	-9.39923
▁आग	-9.40003
▁began	-9.40055
बी	-9.40105
▁Twitter	-9.40196
▁earlier	-9.40196
▁ट्रम्प	-9.40197
▁U	-9.40238
▁मान	-9.40403
▁Central	-9.40434
▁parties	-9.4045
▁Bank	-9.40757
▁captain	-9.40773
▁human	-9.40791
ce	-9.40799
▁condition	-9.40823
▁issues	-9.40832
▁अहवाल	-9.40873
वरील	-9.41014
4	-9.41021
▁१५	-9.4104
▁might	-9.41105
▁lodged	-9.41153
▁याला	-9.41232
”	-9.41264
▁ग	-9.41296
▁problems	-9.41434
▁likely	-9.41461
▁food	-9.4147
▁संस्था	-9.41513
▁led	-9.41565
▁कोणत्या	-9.41636
हा	-9.41653
▁O	-9.41653
त्या	-9.41714
▁आव्हान	-9.41718
▁Act	-9.41738
▁लाभ	-9.41753
प्रमाणे	-9.41776
▁future	-9.41871
▁gave	-9.41871
▁assembly	-9.41873
▁सुधारणा	-9.41957
▁night	-9.42186
▁उ	-9.42263
▁सरकारच्या	-9.42281
▁उत्तम	-9.42355
▁till	-9.42357
▁आंदोलन	-9.42444
▁Her	-9.42452
▁पहिला	-9.42673
▁Re	-9.42827
▁read	-9.42848
▁example	-9.42937
ent	-9.42941
▁कोणताही	-9.42945
▁मतदान	-9.43012
▁कसा	-9.4304
▁शरद	-9.43085
▁उद्योग	-9.43139
ad	-9.43178
▁अर्थात	-9.43242
▁कंपनी	-9.43259
▁प्रकारे	-9.43289
▁Cup	-9.43349
▁दूर	-9.43384
▁७	-9.4341
▁असणार	-9.43453
▁Bengal	-9.43516
▁control	-9.43522
▁यानंतर	-9.43584
▁written	-9.43596
पणा	-9.43693
▁Tom	-9.43714
te	-9.438
▁faith	-9.43816
▁वैद्यकीय	-9.43855
▁जातात	-9.43904
▁service	-9.43953
▁release	-9.44022
हून	-9.44077
▁वाईट	-9.4411
▁40	-9.44165
ah	-9.44225
3	-9.44296
▁पंतप्रधानांनी	-9.4435
▁कि	-9.44383
▁attended	-9.44434
▁स्थानिक	-9.44548
▁Cabinet	-9.44561
▁possible	-9.44565
ाकडे	-9.44567
▁gone	-9.44585
▁बोलत	-9.44588
▁दिल्या	-9.44592
▁असलेले	-9.44604
▁बँक	-9.4468
▁met	-9.44776
▁months	-9.44781
to	-9.44822
▁मिळणार	-9.44897
▁don	-9.44986
▁Punjab	-9.45038
▁provide	-9.45047
▁आगामी	-9.45059
▁official	-9.45114
▁जगातील	-9.45167
▁पर्यंत	-9.45478
▁मुलगी	-9.45557
▁include	-9.45597
▁स्थिती	-9.45624
old	-9.45692
▁thing	-9.45725
▁रात्री	-9.45767
▁जवळ	-9.45809
▁words	-9.45834
▁husband	-9.45922
▁international	-9.46278
▁माहीत	-9.46311
▁स्थान	-9.46321
pur	-9.4638
▁ठेवण्या	-9.46506
▁something	-9.46563
▁फायदा	-9.46591
▁course	-9.46695
▁believe	-9.46729
de	-9.46745
▁घ्या	-9.46755
▁समाज	-9.46766
▁full	-9.46771
▁प्रतिक्रिया	-9.46817
▁Army	-9.46825
ाबद्दल	-9.46849
वी	-9.46922
प्र	-9.46931
▁मित्र	-9.46996
▁पी	-9.4705
▁International	-9.4707
▁Three	-9.47071
▁mind	-9.47102
▁22	-9.47157
▁सी	-9.47161
ाचं	-9.47184
▁nation	-9.47213
▁Raj	-9.47253
▁remain	-9.47305
▁major	-9.47316
▁truth	-9.47325
▁serious	-9.47504
लो	-9.47513
▁वाटत	-9.47516
▁तंत्रज्ञान	-9.47568
▁king	-9.4761
E	-9.47631
▁increase	-9.47638
un	-9.4765
▁विरोधी	-9.4781
▁response	-9.47835
▁सादर	-9.47837
▁increased	-9.47919
ty	-9.47934
▁strong	-9.47965
ानंतर	-9.47985
▁निकाल	-9.47997
▁मन	-9.48002
▁ज	-9.48138
सुद्धा	-9.4817
▁office	-9.48242
▁याचिका	-9.48248
तात	-9.48337
▁कोरोना	-9.48348
▁टॉम	-9.48349
▁stars	-9.48437
▁friends	-9.48512
▁सहकार्य	-9.48535
▁स्थापन	-9.48604
▁expected	-9.48672
▁Not	-9.48677
▁देऊ	-9.48798
▁hard	-9.48813
▁पत्रकार	-9.4882
▁धर्म	-9.48936
▁upon	-9.48959
ॉ	-9.48985
▁मनात	-9.4907
less	-9.49153
▁better	-9.49175
▁rain	-9.49257
U	-9.49325
▁प्रकरणात	-9.49404
▁उत्पादन	-9.49428
▁sector	-9.49545
▁ओ	-9.49551
▁patients	-9.49593
▁प्रतिसाद	-9.49644
▁Rajasthan	-9.4965
▁उप	-9.49692
▁प्रकाश	-9.49702
▁दहशतवादी	-9.49712
वरून	-9.49893
▁कुटुंब	-9.49893
▁admitted	-9.49906
▁कोणते	-9.49935
▁वातावरण	-9.49946
▁open	-9.50005
▁एस	-9.50052
▁J	-9.50062
▁issued	-9.50096
coming	-9.50096
▁आत्महत्या	-9.50167
▁दावा	-9.50174
▁वा	-9.50228
▁level	-9.50242
ठ	-9.50254
▁चीन	-9.50254
▁head	-9.50291
ंट	-9.50336
पी	-9.50338
▁द्या	-9.50425
▁spirit	-9.50429
▁small	-9.5043
▁संवाद	-9.50435
ंड	-9.5047
▁असल्याची	-9.50517
ीन	-9.50541
▁ट्विट	-9.50592
▁र	-9.50623
▁११	-9.50677
▁परवानगी	-9.50693
▁बलात्कार	-9.50693
▁संयुक्त	-9.50694
▁मंत्रालय	-9.50716
▁असतील	-9.50743
▁launched	-9.50779
▁म्हणतात	-9.50795
क्ष	-9.50799
▁करण्याच्या	-9.5083
▁यांच्यावर	-9.50909
▁अंतिम	-9.50958
led	-9.51025
▁गुण	-9.51064
▁चांगला	-9.5109
at	-9.51095
▁मंदिर	-9.51108
▁दल	-9.51123
▁व्हायरल	-9.51221
▁gold	-9.51226
▁Health	-9.51255
▁prices	-9.51299
▁याचे	-9.51375
▁हत्या	-9.51481
▁प्रदर्शित	-9.51487
▁रद्द	-9.51487
▁श	-9.51517
डे	-9.51534
▁ख्रिस्ती	-9.51559
न्स	-9.5166
▁बैठकीत	-9.51698
▁संशोधन	-9.51722
▁statement	-9.51729
▁मराठी	-9.51779
िया	-9.51781
ha	-9.51861
ba	-9.5192
▁village	-9.51935
▁पहिली	-9.52019
▁शुभेच्छा	-9.52019
▁कोहली	-9.52034
▁Our	-9.52097
▁वडील	-9.52119
▁पुस्तक	-9.52366
ak	-9.52389
▁field	-9.52417
▁services	-9.52438
▁States	-9.52696
▁याच	-9.5277
▁H	-9.52771
▁coming	-9.52777
▁politics	-9.52823
▁सूचना	-9.52823
▁पैसे	-9.52824
▁answer	-9.52844
▁tell	-9.52854
▁9	-9.52862
▁प्राप्त	-9.52896
▁Air	-9.52929
▁नियंत्रण	-9.5297
▁war	-9.53061
नुसार	-9.53089
▁close	-9.53175
▁cause	-9.53233
O	-9.53322
▁पाऊस	-9.53363
▁ला	-9.53381
▁पत्र	-9.53384
▁निधी	-9.53428
▁पुणे	-9.53494
um	-9.53505
ies	-9.53644
▁फोन	-9.53658
▁parts	-9.5373
▁run	-9.53864
▁everyone	-9.53913
▁विश्‍वास	-9.53914
▁underway	-9.53918
▁MLA	-9.54396
▁huge	-9.54452
▁व्हिडीओ	-9.54452
▁fight	-9.54456
▁नव्हे	-9.54456
▁कुठे	-9.54458
▁भावना	-9.54568
▁Im	-9.54668
ir	-9.54682
▁himself	-9.54726
▁बी	-9.5482
▁लागू	-9.54941
▁ने	-9.54972
▁सामाजिक	-9.55038
▁IPL	-9.55093
▁Ali	-9.55239
▁period	-9.55276
ापासून	-9.55279
▁माध्यमातून	-9.55282
ate	-9.55321
▁चित्र	-9.55423
▁झालेली	-9.55617
▁भाव	-9.55656
▁नागरिक	-9.55705
▁history	-9.55829
▁अपघातात	-9.55845
▁सीबीआय	-9.55847
▁आधी	-9.55856
▁old	-9.55966
▁मागे	-9.56016
▁polls	-9.56135
z	-9.56201
▁चालू	-9.56242
H	-9.56331
▁वर्षी	-9.56372
▁co	-9.56399
▁जन्म	-9.5641
▁आर	-9.56422
▁अपेक्षा	-9.56433
▁free	-9.56435
▁न्याय	-9.56487
▁तिचा	-9.56492
▁कर्ज	-9.56512
▁Sri	-9.56622
▁मुले	-9.56721
▁हिंदी	-9.56731
▁सरकारी	-9.56749
▁धावा	-9.56791
ताना	-9.56824
सं	-9.56887
▁According	-9.56888
8	-9.56965
▁दिल्लीत	-9.56968
▁करेल	-9.56969
▁places	-9.57105
व्या	-9.57294
▁भारताला	-9.57318
▁९	-9.5739
▁वाचा	-9.57436
▁असू	-9.57468
▁Hospital	-9.57507
▁viral	-9.57508
▁comes	-9.57512
▁point	-9.57551
ther	-9.57586
▁तेल	-9.57658
▁शाह	-9.5772
▁कधीही	-9.57731
▁Centre	-9.57756
ry	-9.57756
▁word	-9.57803
▁clear	-9.57813
▁David	-9.57819
ia	-9.57947
▁इस्राएल	-9.58025
?"	-9.58027
▁महाराष्ट्रात	-9.58119
▁८	-9.58202
शा	-9.58214
▁मृतदेह	-9.58357
▁candidates	-9.58362
▁करु	-9.58377
ary	-9.58402
▁heavy	-9.58642
▁injuries	-9.58642
▁राजीनामा	-9.58642
▁University	-9.58652
▁नकार	-9.58739
▁राष्ट्र	-9.58758
▁महिन्यात	-9.58834
▁Priyanka	-9.58928
▁main	-9.58938
▁स्पर्धा	-9.58947
▁General	-9.58978
▁सचिव	-9.58994
▁सिनेमात	-9.59062
▁date	-9.59154
▁cost	-9.59219
▁private	-9.59224
id	-9.59377
▁भारताचे	-9.59396
▁कठीण	-9.59502
▁एखाद्या	-9.59559
▁कशी	-9.59567
▁खरे	-9.59585
▁झालेले	-9.59586
▁हवा	-9.59589
up	-9.59602
▁वर्ष	-9.59738
▁fear	-9.5979
▁सार्वजनिक	-9.59816
मान	-9.59868
v	-9.59873
▁साली	-9.59921
▁driver	-9.60075
▁Justice	-9.60079
▁feel	-9.60122
▁anyone	-9.6013
▁१८	-9.60199
▁आशा	-9.60251
▁हवे	-9.60301
▁workers	-9.60318
▁हल्ल्या	-9.60344
▁आहात	-9.60391
▁जगात	-9.60397
ting	-9.60401
▁study	-9.6042
▁निश्चित	-9.60435
▁कर्नाटक	-9.60647
▁candidate	-9.60654
x	-9.60746
6	-9.60749
▁इंग्लंड	-9.60808
▁आवाहन	-9.60951
▁लिहिले	-9.60952
▁पवित्र	-9.6101
बरोबर	-9.61034
▁efforts	-9.61085
▁यांच्यासह	-9.61111
▁गाव	-9.61234
▁traffic	-9.61243
▁wrong	-9.61243
▁Dur	-9.6127
▁demanded	-9.61367
▁कायद्या	-9.61484
▁seven	-9.61507
▁temple	-9.61535
▁medical	-9.61537
ya	-9.6154
▁benefit	-9.6165
▁भाजपने	-9.6188
▁Yahweh	-9.61882
▁once	-9.61915
▁vehicles	-9.61951
▁बिहार	-9.62109
ful	-9.62145
▁Of	-9.62296
▁दु	-9.62366
समोर	-9.62558
▁गाडी	-9.62565
▁भाजपच्या	-9.62628
▁means	-9.6263
(	-9.62682
▁सहभाग	-9.62693
▁को	-9.62805
▁२०	-9.62834
▁पाया	-9.62841
▁प्रस्ताव	-9.62906
▁घरात	-9.62957
▁within	-9.62968
▁सुनावणी	-9.63011
▁त्रास	-9.63015
▁Kerala	-9.63016
▁brother	-9.63027
▁देशाच्या	-9.63034
▁देण्यासाठी	-9.63044
स्	-9.63062
ॅ	-9.63079
▁Bangladesh	-9.63246
▁Sharad	-9.63316
▁committee	-9.63333
▁भूमिकेत	-9.6337
9	-9.63434
▁पती	-9.63517
▁building	-9.63534
nd	-9.63638
▁बैठक	-9.63753
▁पि	-9.63765
▁Let	-9.63871
▁business	-9.63873
▁Parliament	-9.63907
▁निधन	-9.63908
▁शिवाय	-9.63978
ch	-9.64019
▁होऊन	-9.64116
▁व्या	-9.64122
जा	-9.64241
भूत	-9.6425
▁शहरात	-9.64258
▁अमेरिके	-9.64262
▁उपयोग	-9.64316
▁अखेर	-9.64339
आ	-9.6439
▁येऊ	-9.64451
▁real	-9.64599
▁आधारित	-9.64601
V	-9.64605
▁तयारी	-9.64721
▁economy	-9.64821
having	-9.64824
▁Hence	-9.64825
▁दिसणार	-9.64848
▁आलेले	-9.65073
year	-9.6511
▁wrote	-9.65125
▁कुणी	-9.65133
ां	-9.65213
▁changed	-9.6527
hi	-9.65319
▁able	-9.65359
▁अंदाज	-9.65446
▁whole	-9.65562
िन	-9.65654
▁शिक्षा	-9.65735
▁राजकारण	-9.65739
▁होतील	-9.65763
▁poor	-9.65783
मंत्री	-9.65783
▁often	-9.6581
▁प्रार्थना	-9.65936
ach	-9.65959
▁constituency	-9.66042
▁ज्येष्ठ	-9.66042
▁More	-9.66082
▁United	-9.66099
▁होण्याची	-9.66107
▁kind	-9.66143
L	-9.66194
vi	-9.66235
ाय	-9.66266
▁air	-9.66298
▁view	-9.66347
▁दुसरा	-9.66365
▁understand	-9.66419
▁विधेयक	-9.66425
▁पूर्व	-9.66492
▁नेहमी	-9.66492
▁आयुक्त	-9.66662
▁होतात	-9.66674
▁कदाचित	-9.66677
▁डी	-9.66783
iya	-9.66836
हि	-9.66843
▁आलेली	-9.66891
▁कार्यालय	-9.6696
▁झाल्यानंतर	-9.67002
▁job	-9.67019
▁Christ	-9.67022
▁असल्याचा	-9.67084
▁राहिले	-9.67207
▁पंजाब	-9.67208
▁morning	-9.67278
▁मंजुरी	-9.67279
▁देणार	-9.67294
▁स्वातंत्र्य	-9.6741
ष	-9.67523
▁LORD	-9.6759
▁प्रकृती	-9.67592
▁दिग्दर्शक	-9.67624
▁आय	-9.67639
▁relationship	-9.67644
▁passed	-9.67673
▁पावसा	-9.67732
▁सा	-9.67768
▁कॉंग्रेस	-9.6784
▁seat	-9.67861
adhya	-9.67905
▁प्रचार	-9.67936
▁expressed	-9.67967
▁तुझ्या	-9.68098
▁बंगाल	-9.68164
▁अजित	-9.68231
▁जाऊन	-9.68331
▁Paul	-9.68393
की	-9.68656
▁आजार	-9.68666
▁चा	-9.68715
▁प्रश्‍न	-9.68846
▁गृहमंत्री	-9.68849
▁hope	-9.6893
▁बाबतीत	-9.6896
▁game	-9.68973
▁trying	-9.68979
▁experience	-9.69148
▁peace	-9.69155
▁blood	-9.69162
▁Kingdom	-9.69163
▁North	-9.69185
▁अली	-9.69224
▁Christian	-9.69231
▁आधार	-9.69244
▁देऊन	-9.69248
""."	-9.69282
▁region	-9.6943
▁झालं	-9.69445
▁married	-9.6948
▁वरिष्ठ	-9.6948
▁मार	-9.69596
▁बाब	-9.69634
▁करणारे	-9.69689
F	-9.69695
▁difficult	-9.69745
▁पाहिले	-9.69752
▁side	-9.69808
▁पूर्णपणे	-9.69858
▁playing	-9.69874
▁Man	-9.69895
▁राजस्थान	-9.69975
▁भाषा	-9.70069
▁हवी	-9.70125
▁केलेले	-9.70227
▁जणांना	-9.70268
▁आभार	-9.70318
▁पक्षाचे	-9.70323
▁आयोज	-9.7036
▁company	-9.70438
▁लोकशाही	-9.70444
▁कृषी	-9.70454
▁घडली	-9.70458
▁जनता	-9.70471
▁bus	-9.70525
▁Commission	-9.70526
▁wickets	-9.70532
▁घटक	-9.70548
lo	-9.7055
ध	-9.70669
▁व्यवहार	-9.70695
▁age	-9.70754
वान	-9.70759
▁कल्पना	-9.7076
▁economic	-9.70822
▁group	-9.70873
▁Christians	-9.71009
▁शकले	-9.71113
▁Dont	-9.71139
▁Where	-9.7114
▁वक्तव्य	-9.71166
▁provided	-9.71265
▁Mr	-9.7132
▁शिक्षक	-9.71321
▁वाहन	-9.714
▁investigating	-9.71406
▁Hindi	-9.71408
▁मुलांना	-9.71437
▁सरकारला	-9.71652
▁मानव	-9.71712
▁Finance	-9.71731
▁वस्तू	-9.71736
▁light	-9.71766
▁जाणून	-9.71779
▁राहील	-9.71784
▁scheme	-9.71827
▁इतिहास	-9.71918
▁least	-9.72057
▁अंतर्गत	-9.72057
▁data	-9.72058
▁परमेश्वर	-9.72332
▁common	-9.72384
▁early	-9.7239
▁declared	-9.72427
▁late	-9.72471
▁alleged	-9.72641
▁move	-9.72708
▁alliance	-9.72711
day	-9.72724
▁कलम	-9.72843
▁१४	-9.72875
▁भारताची	-9.72943
▁global	-9.72963
ांशी	-9.72988
▁पाहा	-9.73002
▁Affairs	-9.7304
▁भीती	-9.73042
▁Read	-9.7305
everal	-9.73064
▁असल्याने	-9.73135
▁असता	-9.7319
▁भाजपा	-9.73206
▁मोदींनी	-9.73247
▁व्यापार	-9.73304
▁Development	-9.7337
▁हि	-9.73392
ter	-9.73395
▁fact	-9.73432
▁director	-9.73506
वेळी	-9.73557
व्ह	-9.73579
▁ई	-9.73594
▁एम	-9.7365
▁loss	-9.73674
ol	-9.7368
▁सांगितलं	-9.73707
et	-9.7373
▁ठरला	-9.73742
▁youth	-9.73772
ance	-9.73816
▁learn	-9.73874
▁though	-9.73948
▁जीव	-9.74082
▁येतात	-9.74105
▁कु	-9.74116
▁कशा	-9.74228
भ	-9.74301
▁चांगल्या	-9.74367
▁बंदी	-9.74416
▁पडला	-9.74462
▁programme	-9.74491
▁allowed	-9.74524
▁लागणार	-9.74527
▁affected	-9.74545
ani	-9.74595
▁phone	-9.74603
▁Africa	-9.74661
▁little	-9.74701
▁responsibility	-9.74701
▁story	-9.74703
▁सामान्य	-9.74719
▁कधीच	-9.74727
ेस	-9.74747
▁महत्त्वाचे	-9.74749
▁पुरुष	-9.74757
▁worked	-9.7477
▁मा	-9.74778
▁passengers	-9.74866
▁अक्षय	-9.75034
▁saw	-9.75037
▁growth	-9.75051
▁oil	-9.75062
▁जणांचा	-9.7513
▁claimed	-9.75138
▁१७	-9.75241
ni	-9.75269
▁stop	-9.75373
▁society	-9.75373
▁Lord	-9.75375
▁Rajya	-9.75382
▁train	-9.7543
▁rest	-9.75447
आय	-9.75514
▁सोबत	-9.75545
,000	-9.75674
▁behind	-9.75711
▁स्वागत	-9.75711
▁हो	-9.75741
▁याने	-9.75742
▁doesnt	-9.75763
▁व्यवसाय	-9.75833
▁एन	-9.75847
ant	-9.75854
▁देतो	-9.75862
▁रि	-9.75886
▁23	-9.7596
ेन	-9.75976
ण्याची	-9.76017
▁सल्ला	-9.76053
▁Here	-9.76097
▁आयुष्य	-9.76163
▁reach	-9.76193
▁वचन	-9.76217
▁येशूने	-9.76287
डा	-9.76348
▁झालेला	-9.76388
▁energy	-9.76393
▁राज्यपाल	-9.76411
▁नदी	-9.76416
▁Ajit	-9.76421
▁May	-9.76489
▁नेहमीच	-9.76508
▁Now	-9.76551
▁Their	-9.76652
▁१३	-9.767
▁युद्ध	-9.7671
▁Secretary	-9.76732
▁speak	-9.76742
▁Goa	-9.76758
▁सांगण्यात	-9.76787
▁व्यवस्था	-9.76834
▁धोरण	-9.7692
▁स्वतः	-9.76924
▁projects	-9.76928
▁उघड	-9.76968
▁वन	-9.77003
▁ones	-9.77008
▁brothers	-9.77061
▁खासगी	-9.77076
▁प्रोत्साहन	-9.77088
▁त	-9.77147
▁joined	-9.77212
▁खाली	-9.77239
टे	-9.77337
▁n	-9.77366
▁short	-9.77369
▁eyes	-9.77411
▁industry	-9.77418
▁Patel	-9.77422
▁bank	-9.77425
va	-9.77432
पूर्ण	-9.77475
▁ready	-9.77485
▁campaign	-9.77522
ap	-9.77598
▁31	-9.77623
▁वर्षात	-9.77662
▁success	-9.77711
▁असले	-9.77751
▁Opposition	-9.77763
▁क्षमता	-9.77763
▁थेट	-9.77771
▁तसंच	-9.77859
▁created	-9.77878
▁घेऊ	-9.77895
▁conducted	-9.77895
▁fine	-9.78053
▁वेगवेगळ्या	-9.78122
▁खरेदी	-9.78141
▁केल्यानंतर	-9.7817
mi	-9.78203
▁उपक्रम	-9.78203
▁Department	-9.78237
▁d	-9.78368
▁c	-9.78368
िका	-9.78402
▁लोकांच्या	-9.78412
▁personnel	-9.78456
▁पाठिंबा	-9.78456
▁opportunity	-9.78456
▁गट	-9.78529
▁पद	-9.78556
▁त्यातून	-9.78758
▁उल्लेख	-9.78803
▁कर्मचारी	-9.78831
▁suffered	-9.78871
हे	-9.79037
▁W	-9.791
▁rise	-9.79124
र्	-9.7913
▁Committee	-9.79154
▁Also	-9.79173
▁असल्यामुळे	-9.79185
is	-9.79223
▁सत्ता	-9.79246
▁forward	-9.79341
We	-9.79351
▁संदेश	-9.79451
▁results	-9.79564
▁बसला	-9.7957
▁गो	-9.79726
▁roads	-9.79784
▁60	-9.798
▁जिल्ह्यात	-9.79836
▁positive	-9.79857
▁पहिले	-9.79857
▁पालन	-9.79873
▁विधान	-9.79876
▁संदर्भात	-9.80018
▁वृत्त	-9.80029
▁language	-9.80072
ling	-9.80088
▁बरेच	-9.80113
▁देवाने	-9.80148
ealand	-9.8021
▁Akshay	-9.8021
▁deal	-9.80214
▁violence	-9.80242
▁झाल्याचे	-9.80264
▁हेच	-9.80324
जे	-9.80356
▁named	-9.80459
▁bad	-9.80521
▁actress	-9.80536
▁रस्ते	-9.80565
▁season	-9.80573
▁Later	-9.80597
▁protest	-9.80668
▁उदाहरण	-9.80696
घ	-9.80697
▁हाती	-9.8083
▁नोकरी	-9.80834
▁ठेवले	-9.80896
▁roles	-9.80905
▁couple	-9.80921
▁easy	-9.80921
▁भाजपला	-9.80947
▁required	-9.80948
▁हिंदू	-9.80985
▁ज्ञान	-9.80988
▁बळी	-9.81005
▁सर्वांना	-9.81053
▁districts	-9.81065
नि	-9.81128
▁features	-9.81181
▁मिळते	-9.81187
▁कलाकार	-9.812
▁म्हटलं	-9.81234
▁key	-9.81278
▁Bachchan	-9.81278
▁काढून	-9.81316
▁member	-9.81371
▁e	-9.81392
▁rate	-9.81413
▁जा	-9.81466
▁अंमलबजावणी	-9.81568
▁contest	-9.81581
▁Earlier	-9.81636
▁पटेल	-9.81645
ाल	-9.8166
▁raised	-9.81677
ार	-9.81688
▁interest	-9.81783
▁using	-9.81787
▁needed	-9.81818
▁26	-9.81848
▁सुद्धा	-9.81857
▁address	-9.81912
▁Council	-9.81996
▁सकाळी	-9.82033
▁कोणीही	-9.82062
▁केलेली	-9.82087
▁भाऊ	-9.82102
he	-9.82132
मागील	-9.82209
्यात	-9.82225
▁ensure	-9.8231
▁केरळ	-9.82319
▁vs	-9.82348
▁अधिकृत	-9.82353
▁त्याच	-9.82361
▁Governor	-9.82374
▁श्री	-9.82416
▁talk	-9.82511
▁संघा	-9.82613
▁thought	-9.82653
ंसाठी	-9.82704
▁progress	-9.82709
▁English	-9.82719
▁संगीत	-9.82719
▁population	-9.8272
▁largest	-9.82844
▁सह	-9.82858
▁reasons	-9.82897
▁खास	-9.82911
▁according	-9.83039
▁Haryana	-9.83083
▁award	-9.83089
▁प्रशिक्षण	-9.83091
▁While	-9.83112
▁central	-9.83116
▁सोडून	-9.83121
▁वेग	-9.83245
णा	-9.83272
▁vehicle	-9.833
▁letter	-9.83306
▁यासंदर्भात	-9.83321
▁spiritual	-9.83362
▁शेवट	-9.83382
▁यापूर्वी	-9.83431
▁shot	-9.83448
▁everything	-9.83448
▁market	-9.83472
▁बांगलादेश	-9.83616
िस	-9.83626
▁fans	-9.83739
▁living	-9.83814
▁Witnesses	-9.83818
▁200	-9.83818
▁MLAs	-9.83893
▁Your	-9.83967
▁picture	-9.84038
▁फरक	-9.84203
▁works	-9.84226
▁मान्य	-9.8425
▁teams	-9.84416
▁गुंतवणूक	-9.84542
▁विनंती	-9.84565
out	-9.84592
दरम्यान	-9.84595
▁Therefore	-9.846
▁70	-9.84637
▁येतो	-9.84638
▁schools	-9.84721
▁tax	-9.84748
▁क्षेत्रातील	-9.84782
W	-9.84927
▁नसल्याचे	-9.84943
▁कोविड	-9.84961
▁officers	-9.84985
▁Today	-9.84986
ंदा	-9.85048
▁सगळे	-9.8509
rs	-9.85093
▁असलेला	-9.85166
▁Pakistani	-9.85233
▁Ka	-9.85272
▁1,	-9.85277
▁thou	-9.85293
▁शि	-9.85293
▁Dhoni	-9.85294
▁लावली	-9.85314
▁उलट	-9.85359
▁क्रमांक	-9.85375
▁heard	-9.8542
▁share	-9.85426
ot	-9.85549
▁आदी	-9.85598
da	-9.85658
▁चाचणी	-9.85666
▁cooperation	-9.85667
▁quite	-9.85707
▁BCCI	-9.85787
▁जवळपास	-9.85823
▁१६	-9.85854
▁allow	-9.85886
्‍या	-9.85888
▁टी	-9.85975
▁Everyone	-9.86043
▁जीवनात	-9.86063
▁अन्न	-9.8608
▁rejected	-9.86086
▁star	-9.86179
▁मृत	-9.86188
▁ह	-9.86292
▁नाहीये	-9.86295
▁आध्यात्मिक	-9.86298
रो	-9.8637
▁सोनिया	-9.8642
▁stand	-9.86421
▁मतदार	-9.86431
▁याशिवाय	-9.8645
▁clean	-9.86551
war	-9.86577
▁सर	-9.86615
▁दोघे	-9.8679
▁opposition	-9.86794
▁तिसऱ्या	-9.86795
▁Women	-9.86818
को	-9.86844
▁म्हणजेच	-9.86904
me	-9.8695
▁म्हणूनच	-9.86957
▁ways	-9.86993
ाबाबत	-9.87032
▁probe	-9.87092
▁फ	-9.87108
ka	-9.87163
▁सतत	-9.87176
▁हवामान	-9.87182
▁हवाई	-9.87187
▁rains	-9.87318
wa	-9.87438
▁त्यातील	-9.87494
▁संघात	-9.87545
▁अनिल	-9.8756
▁असल्याचं	-9.87571
▁return	-9.8778
ck	-9.87925
▁परीक्षा	-9.87938
ग्रस्त	-9.87956
▁highest	-9.87964
▁स्त्री	-9.88066
▁price	-9.88121
▁citizens	-9.88191
ge	-9.8828
▁Monday	-9.8832
▁घेण्यासाठी	-9.88358
▁failed	-9.88373
▁respect	-9.88398
▁ex	-9.88402
▁जिल्ह्यातील	-9.88429
▁आठ	-9.88494
राव	-9.88603
गा	-9.88618
▁बातमी	-9.88704
▁नगर	-9.88708
▁Following	-9.8873
▁ministers	-9.88741
▁call	-9.88752
एस	-9.88797
▁प्रगती	-9.888
ीच्या	-9.88866
▁पूर्वी	-9.88937
▁ago	-9.88948
▁व्यक्‍ती	-9.88972
co	-9.88994
▁By	-9.89005
age	-9.89039
▁महा	-9.8906
▁सुरक्षित	-9.89075
▁सचिन	-9.89089
▁प्रकारच्या	-9.89178
▁महत्व	-9.89321
▁वय	-9.89364
ex	-9.89381
ायचे	-9.89387
ाई	-9.89392
ाना	-9.89426
▁आमचा	-9.89582
▁caused	-9.89646
▁पडले	-9.89681
्‍	-9.89705
and	-9.89808
ke	-9.89815
▁Tuesday	-9.89865
▁committed	-9.89868
▁युती	-9.89876
▁देणे	-9.89884
sa	-9.89894
▁COVID	-9.89904
▁असो	-9.89962
▁करणारा	-9.89995
ंब	-9.89997
▁financial	-9.90178
▁आवाज	-9.90178
▁Hyderabad	-9.90256
▁370	-9.90262
▁करायचे	-9.9027
▁रोजगार	-9.90292
सारख्या	-9.90423
▁सि	-9.90608
▁रक्कम	-9.90648
▁Nadu	-9.9065
▁themselves	-9.90651
▁उपाय	-9.90681
tra	-9.9069
▁pay	-9.90697
▁completed	-9.90731
▁आमचे	-9.90765
▁closed	-9.90769
▁काँग्रेसच्या	-9.90783
▁congregation	-9.90945
▁पाहायला	-9.91046
▁Farmers	-9.91143
▁paid	-9.91166
ासह	-9.91181
▁current	-9.91403
▁De	-9.91426
▁community	-9.91438
▁personal	-9.9144
▁सगळ्या	-9.91547
▁वर्षे	-9.91642
▁पथक	-9.9165
▁पेट्रोल	-9.91833
▁माणूस	-9.91834
▁Sonia	-9.91838
▁जप्त	-9.91839
▁Director	-9.91849
▁त्याच्यावर	-9.91853
र्स	-9.9189
▁front	-9.91896
▁उपचारासाठी	-9.91912
▁forces	-9.91913
▁appointed	-9.91948
▁followed	-9.91989
▁either	-9.92024
▁दर्जा	-9.92049
▁सं	-9.92096
▁भ	-9.92201
▁घटनेची	-9.9223
▁families	-9.92232
▁ग्रामीण	-9.92232
▁trust	-9.92232
▁2014	-9.92237
▁होय	-9.92303
▁आमची	-9.9233
स्त	-9.92352
▁स्वप्न	-9.92503
▁संपर्क	-9.92549
▁increasing	-9.92555
▁2016	-9.92637
▁stated	-9.92649
पा	-9.92694
२	-9.92721
▁देण्याची	-9.92722
▁तिची	-9.92769
मन	-9.92774
▁less	-9.92845
▁प्रभाव	-9.92939
▁बे	-9.92953
▁पोस्ट	-9.93024
▁force	-9.93056
▁bail	-9.9306
▁produced	-9.93103
ै	-9.93117
▁याबद्दल	-9.93168
िल	-9.93175
▁spread	-9.93197
▁term	-9.93242
▁Are	-9.93266
▁फलंदाज	-9.93284
▁लि	-9.9332
▁उद्	-9.93342
▁single	-9.93367
ous	-9.93413
▁Defence	-9.93437
▁Will	-9.93444
▁जाण्या	-9.93451
▁मते	-9.93462
▁department	-9.93505
▁Sa	-9.93522
▁ठरले	-9.93546
▁दे	-9.93694
▁doctors	-9.93749
▁purpose	-9.93768
▁general	-9.9379
▁eight	-9.93825
▁गरजेचे	-9.93843
▁नसते	-9.93847
ाविषयी	-9.93849
▁test	-9.93869
▁तुमचे	-9.93878
▁सन्मान	-9.93902
▁rape	-9.93927
tan	-9.94057
▁लेख	-9.94073
▁turned	-9.94103
▁27	-9.94136
ाकडून	-9.94144
ts	-9.94154
▁शाळा	-9.94186
▁28	-9.94218
▁FIR	-9.94248
▁supply	-9.94248
▁तपासणी	-9.94254
▁पाप	-9.94289
▁half	-9.94308
▁500	-9.94317
▁नावे	-9.94343
▁line	-9.94373
ओ	-9.94545
▁परिषद	-9.9456
ानं	-9.94612
▁officer	-9.94642
▁Deputy	-9.94657
▁Friday	-9.94657
▁custody	-9.94657
▁पर्यावरण	-9.94657
▁साजरा	-9.94679
▁पेक्षा	-9.94693
▁धार्मिक	-9.94697
▁details	-9.9479
ळी	-9.94814
▁included	-9.94824
▁जन	-9.94875
▁त्यामध्ये	-9.94967
▁recent	-9.9499
▁भाषण	-9.94991
▁Thursday	-9.95067
▁coronavirus	-9.95067
▁Vijay	-9.95067
▁Chopra	-9.95067
▁Sunday	-9.95068
▁आत	-9.95079
ांपैकी	-9.95081
वार	-9.95094
▁तिचे	-9.95236
▁डे	-9.9543
▁plan	-9.95451
▁झ	-9.95462
▁administration	-9.95478
▁kept	-9.95479
▁recovered	-9.95502
▁quality	-9.95522
▁कल्याण	-9.95531
▁discussed	-9.95594
▁cant	-9.95603
▁attend	-9.95802
▁moment	-9.95829
▁खात्री	-9.95893
▁therefore	-9.95897
▁hands	-9.95908
▁damaged	-9.9595
▁दोषी	-9.95974
▁moved	-9.95996
▁म्हणतो	-9.96033
em	-9.96048
▁कृती	-9.96048
▁thy	-9.96057
ल्यानंतर	-9.96077
▁Wednesday	-9.96306
▁knowledge	-9.96306
▁Most	-9.96325
▁बच्चन	-9.96339
▁आकार	-9.9634
▁construction	-9.96344
्त	-9.96444
▁hearing	-9.96502
▁evening	-9.9652
▁येत्या	-9.96605
▁demand	-9.9668
▁strength	-9.96681
▁John	-9.9672
▁धोका	-9.96724
▁participated	-9.96766
▁Even	-9.96782
ूर	-9.96833
▁मु	-9.9684
▁seriously	-9.96847
▁sons	-9.96879
▁continued	-9.96884
time	-9.9696
▁रुपयां	-9.9699
▁मंडळी	-9.97012
di	-9.97042
पर	-9.97062
ian	-9.97092
▁leave	-9.97097
▁ask	-9.971
▁Sushant	-9.97141
▁proposal	-9.97141
▁केजरीवाल	-9.97141
▁Rukh	-9.97142
▁राष्ट्राध्यक्ष	-9.97143
▁Four	-9.97149
▁position	-9.97159
▁refused	-9.97164
▁Anil	-9.97222
▁accept	-9.97365
▁f	-9.97401
ted	-9.97403
▁शक्ती	-9.97453
Y	-9.97471
्र	-9.97502
ीकरण	-9.97574
▁Kejriwal	-9.97575
▁‘‘	-9.97577
▁Marathi	-9.97591
ेट	-9.9762
▁शासन	-9.97642
im	-9.9766
▁charge	-9.9769
▁तोंड	-9.97714
▁takes	-9.97723
सारखे	-9.97733
▁serve	-9.97753
▁online	-9.97758
ever	-9.97764
▁यहोवाने	-9.97831
एल	-9.97898
▁similar	-9.97904
▁करतील	-9.97906
▁एकाच	-9.97916
ढ	-9.97932
▁उद्देश	-9.97941
▁session	-9.97944
▁popular	-9.97975
शिवाय	-9.9798
▁विक्रम	-9.97988
▁मार्गदर्शन	-9.97993
▁happening	-9.97999
▁देशां	-9.98002
▁technology	-9.98025
▁विद्यार्थ्यांना	-9.98029
ावरून	-9.9804
raj	-9.98062
▁La	-9.98063
▁पाहून	-9.98081
▁दिलं	-9.98128
▁looking	-9.98157
har	-9.98219
▁Can	-9.98308
▁कामगार	-9.98357
लेले	-9.98406
▁activities	-9.98407
▁companies	-9.98407
▁दिग्दर्शन	-9.98407
▁space	-9.98469
▁आयोजन	-9.98506
▁ahead	-9.98545
▁फेरीत	-9.98629
▁न्यायालया	-9.98705
▁लवकर	-9.9874
▁railway	-9.98803
▁until	-9.98833
▁Deepika	-9.98833
▁cities	-9.98835
▁प्रति	-9.98845
▁तक्रारी	-9.98852
▁खूपच	-9.98939
▁पृथ्वीवर	-9.9922
▁turn	-9.99241
▁धक्का	-9.99259
▁religious	-9.9926
▁seized	-9.99265
▁एअर	-9.99266
▁उभे	-9.99287
▁तशी	-9.99313
▁माहितीनुसार	-9.99356
▁घडले	-9.9968
▁चिंता	-9.99688
▁outside	-9.99738
▁येतील	-9.99805
▁didn	-9.99872
▁ठेवा	-9.99874
ut	-9.99916
▁steps	-10.0009
▁research	-10.001
उ	-10.0011
▁attention	-10.0012
ण्याचा	-10.0015
▁मूळ	-10.0024
▁pre	-10.0025
▁पद्धतीने	-10.0026
▁Su	-10.0035
▁wanted	-10.0037
▁ल	-10.0043
प्रकरणी	-10.0049
▁शे	-10.0051
▁डॉक्टर	-10.0052
▁Since	-10.0055
▁ceremony	-10.0055
▁गरीब	-10.0055
▁होणाऱ्या	-10.0057
▁tweeted	-10.0067
▁शेतकऱ्यां	-10.007
▁29	-10.007
▁देशभरात	-10.0075
▁eat	-10.0077
"""	-10.009
▁विद्यापीठ	-10.0095
▁spoke	-10.0096
▁ODI	-10.0098
▁Saturday	-10.0099
▁denied	-10.0099
▁victory	-10.0099
▁उत्पन्न	-10.0099
जण	-10.0099
▁operation	-10.01
▁Indians	-10.0102
▁सोपे	-10.0103
▁points	-10.0104
tion	-10.0106
▁ground	-10.0106
▁नक्की	-10.0107
▁जि	-10.0108
▁दृष्टीने	-10.0111
१	-10.0115
▁नको	-10.0116
▁self	-10.0124
▁झोप	-10.0125
▁रे	-10.0135
रित्या	-10.0135
▁Lanka	-10.0136
▁marriage	-10.0142
▁निषेध	-10.0142
ism	-10.0146
ical	-10.0153
▁बीसीसीआय	-10.0157
▁आवश्यकता	-10.016
▁Ra	-10.0164
▁टाक	-10.0166
शे	-10.0168
ानुसार	-10.017
▁undergo	-10.017
▁कार्ड	-10.0171
▁यादी	-10.0174
▁join	-10.0179
▁successful	-10.018
त्व	-10.0184
▁message	-10.0186
▁Nobody	-10.0186
▁basis	-10.0186
▁दररोज	-10.0186
▁प्रवासी	-10.0188
▁record	-10.0188
▁बोलताना	-10.0188
▁साधला	-10.0192
न्	-10.0196
▁press	-10.0198
▁मात	-10.0203
▁संचालक	-10.0215
▁reports	-10.022
▁m	-10.0222
ेश	-10.0226
▁necessary	-10.023
▁तणाव	-10.023
▁बाजू	-10.0231
▁साहित्य	-10.0231
▁विवाह	-10.0233
ang	-10.0234
▁माहित	-10.0237
nt	-10.0252
▁plea	-10.0255
▁खालील	-10.0256
▁२५	-10.0257
▁Commissioner	-10.0263
▁न्यूझीलंड	-10.0269
▁ministry	-10.0275
▁prime	-10.0275
▁amount	-10.0275
▁mobile	-10.0275
▁religion	-10.0275
▁त्याचबरोबर	-10.0275
कार	-10.0276
▁महत्त्वाची	-10.0281
ाव	-10.0282
क्	-10.0287
ja	-10.0291
▁शेती	-10.0301
▁धोनी	-10.0306
६	-10.0311
▁chair	-10.0318
▁Instagram	-10.0319
▁तुमची	-10.0319
▁तथापि	-10.0319
▁Board	-10.0319
▁आज्ञा	-10.032
▁उमेदवारी	-10.0321
▁हक्क	-10.0326
▁असलेली	-10.0327
▁foreign	-10.0362
▁अतिरिक्त	-10.0364
▁search	-10.0364
▁रोख	-10.0368
▁Yet	-10.0369
▁राज्यमंत्री	-10.0369
▁घेणे	-10.0369
▁watch	-10.0372
▁विज्ञान	-10.0374
▁fourth	-10.0378
▁कामे	-10.0387
▁कौतुक	-10.0409
▁प्रतिनिधी	-10.0409
▁दीपिका	-10.0409
▁सुंदर	-10.0409
▁District	-10.041
▁secretary	-10.0411
j	-10.0418
▁यांनीही	-10.0419
रि	-10.0429
ial	-10.0435
▁formed	-10.0444
▁यातील	-10.0445
▁३०	-10.0448
▁fast	-10.0448
▁लागत	-10.0451
▁यंदा	-10.0454
▁conference	-10.0456
▁मानले	-10.0456
▁sister	-10.0456
▁Donald	-10.0457
▁पडली	-10.0457
▁चेन्नई	-10.0459
▁लागते	-10.047
▁step	-10.0474
ावा	-10.0476
▁मनुष्य	-10.0476
▁पोलिसांच्या	-10.0477
▁ठरव	-10.0478
▁Yes	-10.0485
▁coach	-10.0497
गाव	-10.0498
▁facing	-10.0499
▁घोषित	-10.0501
▁शिव	-10.0503
▁tried	-10.0503
▁follow	-10.0504
▁तुमचा	-10.0505
▁Such	-10.0505
bo	-10.0507
▁houses	-10.0507
▁35	-10.0518
▁related	-10.052
▁बरे	-10.052
ांकडून	-10.052
▁East	-10.0525
be	-10.0526
▁Go	-10.0527
mo	-10.0529
्यु	-10.0534
▁trade	-10.0544
▁क्रीडा	-10.0544
▁अभिनंदन	-10.0544
▁jail	-10.0544
▁प्रियांका	-10.0544
▁pressure	-10.0545
▁million	-10.0548
ळे	-10.0553
▁पृथ्वी	-10.0555
▁पासून	-10.0569
▁स्वच्छ	-10.0575
▁certain	-10.0579
ho	-10.0581
▁whom	-10.0587
▁CCTV	-10.059
▁democracy	-10.059
▁voice	-10.059
▁Sachin	-10.059
▁petition	-10.0591
▁stay	-10.0599
▁पदार्थ	-10.0599
han	-10.06
▁non	-10.0604
ied	-10.0612
▁music	-10.0612
▁sea	-10.0633
▁Prasad	-10.0636
▁अशोक	-10.0636
▁विकसित	-10.0636
▁अध्यक्षतेखाली	-10.0636
▁Ashok	-10.0636
▁दखल	-10.0636
▁approved	-10.0637
▁दहा	-10.0637
▁नेत्यांनी	-10.0638
▁सोमवारी	-10.0639
▁century	-10.0647
▁जून	-10.0656
▁किंमत	-10.0656
▁वर्ग	-10.0665
▁cut	-10.0671
0	-10.0673
▁song	-10.0675
▁visited	-10.0681
▁black	-10.0682
▁कार्यक्रमात	-10.0682
▁बांधकाम	-10.0682
▁Rajput	-10.0682
▁सिद्ध	-10.0684
▁crime	-10.0686
▁पुत्र	-10.0693
णं	-10.07
▁conduct	-10.0723
▁आशीर्वाद	-10.0728
▁भरपूर	-10.0732
▁हल्ल्यात	-10.0732
▁Road	-10.0737
ँ	-10.0746
▁वीज	-10.0751
▁मालिकेत	-10.0754
▁complete	-10.076
▁लागल्या	-10.0761
▁जमा	-10.0763
▁Cricket	-10.0768
▁तीव्र	-10.0771
▁यादीत	-10.0773
▁daily	-10.0775
▁बुधवारी	-10.0775
▁rainfall	-10.0775
▁व्यवस्थापन	-10.0775
▁identified	-10.0775
▁ऊर्जा	-10.0778
▁discussion	-10.0781
▁Over	-10.0783
▁Force	-10.0784
करता	-10.079
▁board	-10.0802
▁remained	-10.0807
J	-10.0807
▁Nath	-10.0808
▁बा	-10.0809
▁तळ	-10.0812
एम	-10.082
▁active	-10.0821
▁Chinese	-10.0821
▁शिंदे	-10.0822
▁October	-10.0826
▁Election	-10.0827
▁प्रदेशाध्यक्ष	-10.0828
▁विद्यार्थ्यां	-10.083
▁निवडणुका	-10.0832
▁80	-10.0836
▁राहिला	-10.0836
▁रा	-10.0842
▁travel	-10.0843
▁पाक	-10.085
पैकी	-10.0852
▁नवे	-10.0852
▁घेतल्या	-10.0858
▁built	-10.0868
▁simple	-10.0868
▁शकेल	-10.0868
▁हजर	-10.087
▁cash	-10.087
▁March	-10.0872
▁Chennai	-10.0873
▁Bar	-10.0875
▁व्ही	-10.0876
▁scored	-10.0879
▁ड	-10.0881
▁Students	-10.0882
▁allegations	-10.0884
▁Bill	-10.0885
▁अप	-10.0885
▁रोग	-10.0895
▁लोकांचा	-10.0896
▁training	-10.0902
▁birth	-10.0915
▁मजबूत	-10.0916
▁सीसीटीव्ही	-10.0916
▁शेवटी	-10.0942
▁संस्कृती	-10.0944
▁गोलंदाज	-10.0944
▁maintain	-10.0945
▁मुद्दा	-10.0958
▁लढत	-10.0961
▁मालिका	-10.0962
डोनाल्ड	-10.0963
▁कठोर	-10.0963
▁culture	-10.0963
▁worth	-10.0965
▁!	-10.0967
▁Thus	-10.0968
▁मानवी	-10.0974
▁इतकी	-10.0974
३	-10.0977
ण्या	-10.0978
▁Rao	-10.0981
ine	-10.0984
▁g	-10.0992
▁focus	-10.0993
वाद	-10.0994
▁पाहत	-10.0995
ब्र	-10.0997
▁arrest	-10.1
▁sure	-10.1005
▁२१	-10.1005
▁प्रेषित	-10.1011
ji	-10.1012
▁गुन्हे	-10.1014
▁राव	-10.1019
▁Whats	-10.1021
▁low	-10.1028
भर	-10.1031
gi	-10.1041
▁पहा	-10.1044
▁speaking	-10.1047
▁challenge	-10.1058
▁Amitabh	-10.1058
▁सुशांत	-10.1059
▁रक्त	-10.1059
▁Rajnath	-10.1059
▁ट	-10.1059
▁मार्गावर	-10.106
राज	-10.106
▁परराष्ट्र	-10.1066
▁disease	-10.1067
▁येऊन	-10.1069
पण	-10.107
▁प्रणाली	-10.1071
▁त्यानुसार	-10.1072
▁Award	-10.1074
देव	-10.1076
ाळ	-10.1076
टा	-10.1078
▁कथा	-10.1079
▁includes	-10.1083
▁w	-10.109
▁चित्रपटाच्या	-10.1096
भारतातील	-10.1101
▁नितीन	-10.1107
▁involved	-10.1108
▁मोबाईल	-10.111
▁movement	-10.1111
▁create	-10.1121
▁border	-10.1122
▁रस्त्यावर	-10.1124
▁मंजूर	-10.1131
▁गौरव	-10.1131
▁वेगळे	-10.1134
षध	-10.1136
op	-10.1138
▁सर्वच	-10.1142
▁राहा	-10.1143
▁झाड	-10.1151
▁आदर	-10.1152
दी	-10.1152
▁Nitin	-10.1155
▁Besides	-10.1155
▁enough	-10.1155
▁पाय	-10.1157
▁हस्ते	-10.1162
espite	-10.1165
▁Film	-10.1167
▁फेटाळ	-10.1169
▁याआधी	-10.1175
▁players	-10.1177
ांसह	-10.1178
▁remember	-10.1186
▁बरोबर	-10.1194
▁extreme	-10.1203
▁Banerjee	-10.1203
▁२४	-10.1204
करिता	-10.1205
▁September	-10.1205
▁thank	-10.121
▁नागरिकांना	-10.1213
▁soldiers	-10.1219
▁ye	-10.122
▁नेतृत्व	-10.1233
काश्मीर	-10.1244
ki	-10.1246
▁Institute	-10.1252
▁yourself	-10.1252
▁अमिताभ	-10.1252
▁Andhra	-10.1253
▁लावण्या	-10.1257
▁ये	-10.1258
eth	-10.1258
▁Actor	-10.1262
▁remains	-10.1274
▁rules	-10.1288
▁तास	-10.1289
नगर	-10.1296
▁शो	-10.1301
▁Kapil	-10.1301
▁Senior	-10.1301
▁responsible	-10.1301
▁especially	-10.1301
▁Railway	-10.1302
▁अमेरिका	-10.1306
ावी	-10.1308
▁केल्याने	-10.1308
▁फटका	-10.1313
▁चे	-10.132
▁leading	-10.1326
▁Mo	-10.1331
▁नक्कीच	-10.1342
▁पडत	-10.1343
▁जाधव	-10.135
▁तामिळनाडू	-10.135
▁tournament	-10.135
▁From	-10.1351
ल्याने	-10.1358
hu	-10.1359
▁करण	-10.1363
▁आढळ	-10.1366
▁isnt	-10.1366
ीचा	-10.1367
▁talks	-10.1372
▁याच्या	-10.1373
▁काढले	-10.1375
▁पद्धती	-10.1379
ानी	-10.1379
▁लाल	-10.1382
▁घेणार	-10.1383
▁स्तोत्र	-10.1387
▁st	-10.1394
▁First	-10.14
▁हैदराबाद	-10.14
▁inquiry	-10.14
▁अग्निशमन	-10.14
▁ऑगस्ट	-10.14
▁डिसेंबर	-10.14
▁Janata	-10.14
▁Security	-10.1402
▁अर्थमंत्री	-10.1402
▁इशारा	-10.1403
▁एप्रिल	-10.1404
▁dis	-10.1404
▁application	-10.1411
▁doctor	-10.1411
ana	-10.1412
▁Hindu	-10.1416
▁गोळीबार	-10.1418
▁pictures	-10.1419
mp	-10.1421
▁function	-10.1423
▁names	-10.1426
▁घट	-10.1426
▁save	-10.1434
▁hold	-10.1435
▁teachers	-10.1442
ag	-10.1442
▁speech	-10.1447
▁sisters	-10.1447
▁थ	-10.1448
▁fell	-10.145
▁Arvind	-10.145
▁journey	-10.145
▁else	-10.145
▁House	-10.145
▁योगदान	-10.145
▁innings	-10.145
▁सुनील	-10.1451
▁changes	-10.1452
मंगळवारी	-10.1452
▁August	-10.1453
▁विरुद्ध	-10.1454
▁heaven	-10.1461
▁medal	-10.1463
५	-10.1476
▁भविष्य	-10.1477
▁...	-10.1482
▁loved	-10.1486
▁झाल्याने	-10.149
▁तब्बल	-10.15
▁शाहरुख	-10.15
▁cast	-10.1501
the	-10.151
▁प्रदर्शन	-10.1516
ors	-10.1521
▁St	-10.1524
▁worship	-10.1548
▁policy	-10.155
▁अरविंद	-10.155
▁राऊत	-10.155
▁Medical	-10.155
▁नागपूर	-10.155
▁Thos	-10.1551
▁याविषयी	-10.1552
▁consider	-10.1556
▁completely	-10.1558
▁terrorists	-10.1559
▁matches	-10.1559
▁Every	-10.1561
endra	-10.1562
▁समजून	-10.1563
▁Water	-10.1576
▁खा	-10.1581
▁स्थापना	-10.1583
▁प्रत्येकी	-10.1593
▁Special	-10.16
▁चव्हाण	-10.16
▁सकारात्मक	-10.16
▁Shivaji	-10.1601
▁150	-10.1603
▁जारी	-10.1603
▁निवडणुकी	-10.1609
▁income	-10.1611
▁Me	-10.1616
▁whe	-10.1624
▁स्व	-10.1625
मला	-10.1629
णाऱ्‍या	-10.1631
▁impact	-10.1633
▁wants	-10.1645
▁debut	-10.1647
▁concern	-10.1647
▁कमाई	-10.1651
▁असणाऱ्या	-10.1652
▁January	-10.1653
▁यु	-10.1653
▁rule	-10.1653
▁Because	-10.1654
▁terror	-10.1655
▁ordered	-10.1656
BJP	-10.166
▁elected	-10.1665
ण्यास	-10.1668
▁hear	-10.1669
▁पाकिस्तानी	-10.1669
▁accepted	-10.1673
▁माध्यम	-10.1674
▁feature	-10.1678
▁मार्च	-10.1681
▁Education	-10.1686
pi	-10.1689
▁Al	-10.1689
▁यातून	-10.17
▁शिवाजी	-10.1702
▁अभिनय	-10.1702
▁शहीद	-10.1702
▁ममता	-10.1702
▁rally	-10.1702
▁मान्यता	-10.1703
▁wedding	-10.1703
▁पावले	-10.1705
ern	-10.1707
tic	-10.1708
▁production	-10.1712
▁मिळवला	-10.1713
▁festival	-10.1716
वून	-10.1722
▁शाळेत	-10.1723
▁रशिया	-10.1725
ृ	-10.1725
▁नव	-10.1728
▁इन	-10.1729
▁Na	-10.1736
▁परिषदेत	-10.1739
▁वित्त	-10.1744
▁घडव	-10.1751
मूद	-10.1753
▁जुलै	-10.1753
▁हॉस्पिटल	-10.1753
▁makes	-10.1758
side	-10.176
▁विक्री	-10.176
▁वेगाने	-10.1761
▁Japan	-10.1761
▁Co	-10.1768
esh	-10.1774
▁career	-10.1775
ng	-10.178
▁विमानतळ	-10.1781
▁prevent	-10.1786
▁request	-10.1788
भारत	-10.1803
▁Railways	-10.1805
▁बहुतेक	-10.1805
▁truck	-10.1805
▁Sunil	-10.1805
▁Apart	-10.1806
▁किमान	-10.1807
▁राहत	-10.1807
▁यांच्याशी	-10.1808
ish	-10.181
▁receive	-10.1811
▁ICC	-10.1813
▁बाद	-10.1819
▁villages	-10.182
▁mean	-10.1821
▁growing	-10.1822
णारे	-10.1824
▁रुपयांची	-10.183
जन	-10.1837
▁nor	-10.1837
▁निवडणुकीच्या	-10.1841
▁मैत्री	-10.1842
▁इंग्रजी	-10.1843
सिंह	-10.1845
▁माणसा	-10.1856
▁दुर्लक्ष	-10.1857
▁alone	-10.1857
▁diesel	-10.1858
▁November	-10.1862
▁higher	-10.1875
ring	-10.1878
▁300	-10.188
राम	-10.1885
av	-10.1886
▁करोना	-10.1891
▁opened	-10.1892
▁inside	-10.1893
▁capital	-10.1898
▁सांगत	-10.1901
सर	-10.1905
्क	-10.1908
▁Anushka	-10.1909
▁evidence	-10.1909
▁risk	-10.1909
▁बॅनर्जी	-10.1909
▁कुठल्या	-10.191
▁सातत्याने	-10.1911
▁लैंगिक	-10.1913
▁charges	-10.1914
▁GST	-10.1921
▁Ma	-10.1923
▁TV	-10.1927
शील	-10.1928
▁साक्षीदार	-10.1936
▁भागीदारी	-10.1937
▁billion	-10.1939
00	-10.1946
ुर	-10.196
▁freedom	-10.1962
▁Raut	-10.1962
▁sought	-10.1962
▁नसेल	-10.1963
▁arrived	-10.1963
▁नियुक्ती	-10.1972
▁मारहाण	-10.1973
▁स्वीकार	-10.1974
▁संख्ये	-10.1975
▁speed	-10.1977
▁म्हणत	-10.1983
▁Theres	-10.1986
▁listen	-10.1997
▁Du	-10.2008
▁भीषण	-10.2014
▁ऑनलाईन	-10.2014
▁carried	-10.2015
▁येणाऱ्या	-10.2015
▁केलेला	-10.2015
▁पावसामुळे	-10.2019
▁मि	-10.2023
▁शेतकऱ्यांना	-10.2024
▁आरोपींना	-10.2026
▁सहन	-10.2031
▁मोहम्मद	-10.2032
▁एकमेकां	-10.2032
▁Other	-10.2033
▁battle	-10.2037
▁घ	-10.2038
ci	-10.2039
▁महिले	-10.204
▁town	-10.2058
▁Dhawan	-10.2067
▁गडकरी	-10.2067
▁staff	-10.2067
▁अर्थव्यवस्था	-10.2067
▁कपिल	-10.2067
▁Under	-10.2067
▁announcement	-10.2068
▁शांतता	-10.207
▁War	-10.2072
▁संघटने	-10.2074
ram	-10.2078
पट	-10.2078
क्स	-10.2086
▁महत्त्व	-10.2088
▁मीडिया	-10.2094
०	-10.2102
▁Add	-10.2103
ंद	-10.2108
▁संघटना	-10.2109
▁एल	-10.211
▁capacity	-10.212
▁शपथ	-10.212
▁June	-10.2121
▁व्यावसायिक	-10.2122
▁अजय	-10.2122
▁शुक्रवारी	-10.2122
▁helped	-10.2124
▁महत्त्वाचा	-10.2128
dy	-10.2131
▁governments	-10.2131
▁अॅ	-10.2132
▁bill	-10.2134
शि	-10.2138
▁performance	-10.2139
▁अनेकदा	-10.2139
▁चर्चेत	-10.2148
ai	-10.2151
""""	-10.2156
खा	-10.2158
▁improve	-10.2161
▁गर्दी	-10.2174
▁रणवीर	-10.2174
▁examination	-10.2174
▁Kolkata	-10.2175
▁द्यावे	-10.2176
▁Ranveer	-10.2176
▁फरार	-10.2177
▁दिशेने	-10.2177
▁December	-10.2181
सन	-10.2181
▁शरीर	-10.2183
▁friend	-10.2185
▁असल्यास	-10.2187
▁वे	-10.2187
▁सेवक	-10.2187
▁आठवड्यात	-10.2191
ंज	-10.2192
▁चि	-10.2199
▁जातील	-10.2202
▁plays	-10.2203
▁सप्टेंबर	-10.2204
▁कारणे	-10.2207
ca	-10.2212
▁न्यायालयाच्या	-10.2225
▁सर्वोत्तम	-10.2228
▁वेगळी	-10.2228
▁त्यापैकी	-10.2236
▁Arun	-10.2236
▁launch	-10.2237
▁तेच	-10.2244
▁लक्ष्य	-10.2245
▁Take	-10.225
▁शिवसेने	-10.2268
दर	-10.2278
▁site	-10.228
▁चोप्रा	-10.2281
▁बंधू	-10.2282
▁stopped	-10.2282
▁Father	-10.2282
▁San	-10.2288
▁महत्वाचे	-10.2292
▁लागतो	-10.2296
▁घेण्याची	-10.2296
▁employees	-10.2297
▁काळा	-10.2302
▁शहरातील	-10.2308
lu	-10.2309
▁trains	-10.2314
▁शतक	-10.2315
▁Law	-10.2317
shi	-10.2319
▁जय	-10.233
▁Tendulkar	-10.2336
▁giving	-10.2336
▁modern	-10.2336
▁Ajay	-10.2336
▁प्रभू	-10.2343
▁तुलनेत	-10.2344
▁विचारले	-10.2345
ः	-10.2346
▁राय	-10.2347
▁गावात	-10.2348
▁fall	-10.2353
ंच	-10.2353
▁फलंदाजी	-10.2359
▁फळ	-10.2364
▁residents	-10.2366
▁२२	-10.2368
ावरील	-10.2372
ence	-10.2373
▁shows	-10.2379
मे	-10.2381
▁debate	-10.2382
▁Article	-10.239
▁तात्काळ	-10.239
▁प्राथमिक	-10.239
▁धवन	-10.239
▁पैसा	-10.2391
▁Karan	-10.2394
▁holy	-10.2394
▁संघर्ष	-10.2395
अर	-10.2402
▁डाव	-10.2409
▁बि	-10.241
▁effect	-10.2411
▁recorded	-10.2412
▁returned	-10.2416
▁वजन	-10.2417
ऱ्या	-10.2421
▁शिक	-10.2423
▁art	-10.2425
इ	-10.2431
▁wasnt	-10.2433
▁कोणाला	-10.2442
sha	-10.2444
▁Sinha	-10.2445
▁exercise	-10.2445
▁infrastructure	-10.2445
▁शिखर	-10.2446
▁आदित्य	-10.2446
▁2015	-10.2446
▁February	-10.2448
▁throughout	-10.2448
▁सलग	-10.2454
ांकडे	-10.2456
▁मिळून	-10.2458
▁sources	-10.2459
स्थ	-10.2461
▁केस	-10.2463
▁मोशे	-10.2465
▁90	-10.2467
▁student	-10.2468
▁सम	-10.247
▁तातडी	-10.247
ियन	-10.2471
▁Mah	-10.2476
▁build	-10.2477
पूर्व	-10.2478
▁अर्पण	-10.248
▁defeat	-10.2483
▁नाश	-10.2493
▁लावले	-10.2495
िश	-10.2496
▁Gadkari	-10.2501
▁गोंधळ	-10.2501
▁सुप्रीम	-10.2501
▁military	-10.2501
▁April	-10.2505
▁shifted	-10.2505
▁act	-10.2506
▁ठेवला	-10.2516
▁Ro	-10.2518
▁अन	-10.252
▁American	-10.2521
▁attacked	-10.2522
▁प्रत्यक्षात	-10.2525
लेली	-10.2526
्म	-10.2527
▁जानेवारी	-10.2533
▁seem	-10.2537
▁संकट	-10.2538
▁लोकांची	-10.2543
२०	-10.2547
▁काँग्रेसने	-10.2552
▁जागीच	-10.2553
▁Indies	-10.2556
▁Open	-10.2556
▁actually	-10.2558
▁ठरली	-10.2558
▁जपान	-10.2559
▁Five	-10.2559
▁Nagpur	-10.256
▁घालून	-10.2562
ंमुळे	-10.2562
▁Asian	-10.2564
▁shooting	-10.257
िट	-10.2572
▁votes	-10.2588
▁environment	-10.259
▁मोड	-10.2595
▁पर्यटन	-10.2612
▁फ्रान्स	-10.2612
▁राजनाथ	-10.2612
▁अनुष्का	-10.2614
▁प्रेक्षकां	-10.2618
▁दिसते	-10.2619
▁organised	-10.262
▁posted	-10.2621
▁आवड	-10.2622
▁vote	-10.2624
▁suffering	-10.2626
▁सरकारकडून	-10.2633
▁host	-10.2636
ौ	-10.264
▁Po	-10.2643
▁Un	-10.2656
▁माग	-10.2656
▁offer	-10.2656
▁बोल	-10.2661
▁Office	-10.2665
▁Am	-10.2667
▁Public	-10.2668
▁reply	-10.2668
▁फेब्रुवारी	-10.2668
▁बचाव	-10.2668
▁प्रदेशात	-10.2669
▁ता	-10.2669
▁जमीन	-10.2673
▁दुसरी	-10.2674
▁ति	-10.2675
▁काहीतरी	-10.2676
▁सांगतो	-10.2683
▁helps	-10.2685
▁पक्षाच्या	-10.2689
▁round	-10.269
▁begin	-10.2693
▁phase	-10.2693
▁nations	-10.2694
▁जनते	-10.2694
▁स्तरावर	-10.2695
▁दोघांना	-10.2699
▁आणले	-10.2716
▁river	-10.2719
▁percent	-10.2724
▁biggest	-10.2725
▁hurt	-10.2725
▁दिवसांपासून	-10.2726
▁दंड	-10.2727
▁उदाहरणार्थ	-10.2728
▁योग	-10.273
▁pro	-10.2739
ोर	-10.2741
▁कस	-10.2741
▁goes	-10.2742
▁गृह	-10.2742
▁मतदारसंघात	-10.2745
ating	-10.2764
ष्ट	-10.2765
ीचे	-10.2766
▁पट	-10.2767
▁मतदारसंघ	-10.2774
▁hours	-10.2776
वरुन	-10.2777
▁silver	-10.2781
▁chairman	-10.2783
▁पार्श्वभूमीवर	-10.2784
▁try	-10.2784
सु	-10.2786
▁पाहता	-10.2787
▁petrol	-10.2788
▁exist	-10.279
▁लावला	-10.2792
▁असल्या	-10.2792
men	-10.2796
▁नवा	-10.2798
▁अमेरिकेत	-10.2828
▁Facebook	-10.2839
▁bench	-10.2839
▁नागरिकत्व	-10.2839
▁Constitution	-10.2842
▁असणे	-10.2842
▁Team	-10.2844
▁July	-10.2848
▁ठिकाण	-10.2848
▁Have	-10.2849
▁जगभरात	-10.2857
▁अंश	-10.2861
ीक	-10.2872
▁न्यायालय	-10.2872
▁Or	-10.2874
▁addition	-10.2881
▁avoid	-10.2883
▁safe	-10.2885
▁गाड्या	-10.2891
▁टप्प्यात	-10.2895
▁उपाययोजना	-10.2896
▁rural	-10.2896
▁म्हणणे	-10.2897
▁Ravi	-10.2898
▁पुरवठा	-10.29
▁majority	-10.29
▁Peter	-10.2902
▁लांब	-10.2906
▁कोर्टाने	-10.2906
▁हजारो	-10.2907
▁नोंदणी	-10.2907
He	-10.2919
▁पार्टी	-10.292
▁send	-10.2921
▁उत्तरे	-10.2921
▁dream	-10.2923
▁individual	-10.2924
▁येशूच्या	-10.2926
ran	-10.2927
▁critical	-10.2947
▁आयपीएल	-10.2948
ure	-10.2948
▁चालक	-10.2954
▁felt	-10.2954
▁nearby	-10.2954
▁यंत्रणा	-10.2954
wadi	-10.2955
▁रविवारी	-10.2957
▁someone	-10.2957
▁seek	-10.2961
▁actors	-10.2961
▁इमारती	-10.2966
▁developed	-10.2969
▁con	-10.2971
ंक	-10.2974
▁almo	-10.2978
▁ट्रक	-10.2983
ika	-10.2984
▁समान	-10.2986
▁laws	-10.2986
▁दुःख	-10.299
▁measures	-10.2993
▁प्रशिक्षक	-10.2996
ळा	-10.2996
ph	-10.2999
▁घेता	-10.2999
ायची	-10.3001
▁idea	-10.3004
▁Friends	-10.3004
▁opening	-10.3007
▁मिळू	-10.3007
ाऊ	-10.3007
▁धडक	-10.3012
▁राजपूत	-10.3012
▁Shetty	-10.3012
▁अभिमान	-10.3012
▁मुक्त	-10.3012
▁सुटका	-10.3013
▁urged	-10.3015
▁employment	-10.3015
▁होणे	-10.3015
▁Russia	-10.3016
▁सीमा	-10.3017
▁above	-10.3017
त्र	-10.3019
▁served	-10.3023
▁anti	-10.3025
ik	-10.3027
▁additional	-10.3028
▁जोडी	-10.3033
▁Don	-10.3034
ab	-10.3038
▁Par	-10.3042
▁खात्या	-10.3045
▁से	-10.3045
▁ऑक्टोबर	-10.3052
मधल्या	-10.3055
▁Ha	-10.3058
ड्या	-10.3067
ver	-10.3067
▁शांत	-10.3068
▁पात्र	-10.3068
▁आधीच	-10.307
▁Mamata	-10.307
▁bodies	-10.307
▁facilities	-10.307
▁अथवा	-10.3071
▁resignation	-10.3071
▁महत्त्वपूर्ण	-10.3071
▁48	-10.3073
▁celebrated	-10.3074
मो	-10.3075
▁जामीन	-10.3076
▁claim	-10.3076
▁rich	-10.3077
▁देण्यास	-10.3081
▁girls	-10.3083
▁प्रदान	-10.3083
▁स्वतंत्र	-10.3084
▁notice	-10.3091
▁विश्‍वासू	-10.3091
▁relations	-10.3096
▁जबाबदार	-10.3099
▁languages	-10.3099
▁airport	-10.31
▁direction	-10.3101
It	-10.3102
▁लेखक	-10.3107
▁स्वतःला	-10.3111
▁वेस्ट	-10.3112
▁परिस्थितीत	-10.3114
ara	-10.3118
▁damage	-10.3121
▁Sara	-10.3124
व्ही	-10.3127
▁तरतूद	-10.3129
do	-10.313
▁शैक्षणिक	-10.3131
▁army	-10.3131
▁अमेरिकन	-10.3131
▁याजक	-10.3132
▁सवाल	-10.3134
▁invited	-10.3134
▁जावे	-10.3138
▁allegedly	-10.3143
▁class	-10.3145
▁पाकिस्तानच्या	-10.3149
▁तु	-10.3155
▁books	-10.3156
▁कंपन्यां	-10.3169
▁appeal	-10.3171
▁ten	-10.3171
ized	-10.3174
▁समाधान	-10.3176
▁wish	-10.3176
एन	-10.3181
▁ban	-10.3187
▁lockdown	-10.3188
▁proud	-10.3189
▁जिवंत	-10.3189
▁Super	-10.3189
▁दुसरे	-10.3191
▁published	-10.3191
▁खेळी	-10.3194
▁Just	-10.3201
▁मतदारसंघातून	-10.3201
▁राजकारणात	-10.3205
▁मंडळ	-10.3207
▁महामार्ग	-10.3209
▁file	-10.3212
▁जल	-10.3215
▁पाकिस्तानचे	-10.322
▁लष्करा	-10.3222
▁आगी	-10.3224
po	-10.3229
▁rights	-10.323
▁प्रशासन	-10.3231
▁page	-10.3232
▁pain	-10.3232
ee	-10.3234
नो	-10.3241
▁पीडित	-10.3243
▁transport	-10.3246
▁बॉलीवूड	-10.3248
▁राजधानी	-10.3248
▁न्यायमूर्ती	-10.3248
▁occurred	-10.3248
▁Aamir	-10.3248
▁Chavan	-10.3248
▁management	-10.3248
▁आधुनिक	-10.3249
▁घ्यावी	-10.325
▁पदक	-10.3252
▁गोल	-10.3259
▁अडचणी	-10.3259
▁बाजारात	-10.326
▁पाहू	-10.3272
▁सण	-10.3272
▁table	-10.3274
▁subject	-10.3279
▁Vi	-10.3282
▁ले	-10.3286
▁affect	-10.3287
▁Muslim	-10.3292
▁देवाला	-10.3296
▁५०	-10.3301
▁मरण	-10.3302
ud	-10.3306
▁agriculture	-10.3308
▁crowd	-10.3308
▁milk	-10.3308
▁अत्याचार	-10.3308
▁justice	-10.3308
▁अरुण	-10.3308
▁skipper	-10.3308
▁राजीव	-10.3308
▁विशिष्ट	-10.3312
▁व्ह	-10.3313
▁चालव	-10.3318
▁पर	-10.3319
▁हिंदुस्थान	-10.3322
▁offered	-10.3327
▁तरुणी	-10.3335
ेत	-10.3336
▁ध	-10.3337
▁victim	-10.334
▁effort	-10.334
-2	-10.3348
▁रु	-10.3354
▁kill	-10.3359
▁मर	-10.3359
▁सदर	-10.3365
▁beautiful	-10.3368
▁चौथ्या	-10.3368
▁विस्तार	-10.3368
▁शकणार	-10.3368
▁परिवार	-10.3368
▁बाकी	-10.3369
▁Satan	-10.3369
▁म्हणाल्या	-10.337
▁decisions	-10.3371
▁looked	-10.3371
▁लगेच	-10.3373
ber	-10.3375
▁प्रकारचे	-10.3376
▁confidence	-10.3377
▁born	-10.3383
▁काल	-10.3388
gan	-10.3389
▁पालक	-10.3398
▁School	-10.3401
सिंग	-10.3402
▁साध्य	-10.3407
ापर्यंत	-10.3408
▁Rai	-10.3408
▁स्थानावर	-10.3408
▁बाल	-10.3423
▁room	-10.3424
▁Information	-10.3429
▁Moses	-10.3429
▁Assam	-10.3429
▁authorities	-10.3429
पदी	-10.3433
▁निर्देश	-10.3434
▁अमेरिकेच्या	-10.3438
▁राख	-10.3444
▁walk	-10.3448
▁daughters	-10.3449
▁कट	-10.3455
▁मिळताच	-10.3457
▁strike	-10.3462
▁त्यांच्याकडे	-10.3464
वत	-10.3476
▁meetings	-10.3483
▁जाणीव	-10.349
▁Padukone	-10.349
▁France	-10.349
▁reality	-10.3491
ल्	-10.3494
▁revealed	-10.3498
▁Bhatt	-10.3498
nagar	-10.3501
▁BJPs	-10.3502
▁32	-10.3503
▁कला	-10.3504
▁gain	-10.3511
ांमधील	-10.3516
▁banks	-10.3524
▁क्रमांकावर	-10.3525
ाद्वारे	-10.3526
▁sin	-10.3532
▁check	-10.3533
▁आश्वासन	-10.3536
▁accounts	-10.3538
▁राहू	-10.3541
▁wont	-10.3542
▁attacks	-10.3544
▁Ex	-10.3548
▁benefits	-10.3551
▁itself	-10.3551
▁आंध्र	-10.3551
▁कार्यरत	-10.3551
▁कार्यकारी	-10.3552
▁criminal	-10.3556
▁नुकताच	-10.3561
▁camera	-10.3562
▁जीएसटी	-10.3566
▁photo	-10.3573
▁म्हणते	-10.3575
▁stations	-10.3588
▁सभा	-10.3593
▁मिळाल्या	-10.3594
▁तापमान	-10.3601
▁judge	-10.3601
▁उपस्थिती	-10.3605
▁add	-10.3605
▁देशाचे	-10.3608
▁झाल्याची	-10.361
▁encounter	-10.3613
▁false	-10.3613
▁Prakash	-10.3613
▁Vice	-10.3614
▁मिळवले	-10.3616
▁begun	-10.3616
▁पळून	-10.3621
▁विश्वचषक	-10.3628
▁SP	-10.3631
▁seeking	-10.3639
ंपैकी	-10.3645
▁नोव्हेंबर	-10.3652
ga	-10.3652
▁करणाऱ्‍या	-10.3653
▁अस	-10.3653
▁कळ	-10.3659
▁देशाला	-10.3661
४	-10.3664
▁faithful	-10.3668
▁स्फोट	-10.3671
▁broke	-10.3672
▁आकडा	-10.3675
▁Thakur	-10.3675
▁पाऊल	-10.3675
▁चूक	-10.3675
▁Rajiv	-10.3676
▁safety	-10.3676
▁करायची	-10.3676
▁suspended	-10.3677
▁budget	-10.3678
▁अवलंबून	-10.368
▁Games	-10.3682
ally	-10.3683
▁विजयी	-10.3687
▁enjoy	-10.3694
▁दर्शन	-10.3695
▁legal	-10.3696
▁considered	-10.3697
ापेक्षा	-10.3703
कुमार	-10.3705
▁महाविद्यालय	-10.371
▁temperature	-10.3711
▁discuss	-10.3718
▁सामन्या	-10.3718
▁भाजपमध्ये	-10.3719
▁contact	-10.372
आर	-10.372
तू	-10.3724
▁mark	-10.3724
▁ट्विटर	-10.3724
▁मधील	-10.3729
▁आशिया	-10.3737
▁वर्ल्ड	-10.3737
▁deployed	-10.3738
▁operations	-10.3739
▁approval	-10.3739
▁prepared	-10.3741
गो	-10.3744
▁Bo	-10.3745
▁managed	-10.3745
▁अर्जुन	-10.3746
▁implemented	-10.3747
▁terrorism	-10.3748
▁box	-10.375
▁winning	-10.3752
▁King	-10.3762
ुक	-10.3766
either	-10.3769
▁investment	-10.3775
हो	-10.3779
▁sides	-10.3786
▁Va	-10.3788
▁बनले	-10.3792
्यू	-10.3797
▁लोकप्रिय	-10.3798
▁कडक	-10.3798
▁आढावा	-10.38
▁दिग्दर्शि	-10.38
▁sense	-10.38
▁अंतर	-10.3801
▁die	-10.3801
▁Imran	-10.3801
▁Asia	-10.3802
▁कोर्टात	-10.3803
▁लाखो	-10.3815
▁पा	-10.3816
ised	-10.3816
▁शत्रू	-10.3817
▁जोशी	-10.3818
▁protect	-10.382
ated	-10.3823
▁समर्थन	-10.3826
▁महान	-10.3833
▁km	-10.3837
no	-10.3843
▁Pa	-10.3845
▁नेमक	-10.3854
▁Nagar	-10.3859
▁loving	-10.3864
▁अजिबात	-10.3864
▁खळबळ	-10.3864
▁interview	-10.3864
▁Chairman	-10.3864
▁birthday	-10.3864
▁पातळीवर	-10.3866
ीची	-10.3867
▁व्हायला	-10.3869
▁नागरिकांनी	-10.3873
▁fled	-10.3876
▁below	-10.3876
ton	-10.388
▁लढाई	-10.3886
▁सोन्या	-10.3893
िम	-10.3896
▁deaths	-10.3901
ीने	-10.3901
▁sub	-10.3903
▁contesting	-10.3906
▁फेरी	-10.391
▁challenges	-10.3917
▁decide	-10.3919
ward	-10.3924
▁श्रीलंके	-10.3926
▁Group	-10.3927
▁detained	-10.3927
▁opportunities	-10.3927
▁पदार्पण	-10.3927
▁Good	-10.3928
▁देशमुख	-10.3928
▁located	-10.3928
▁देते	-10.3928
▁जेटली	-10.3928
▁Joshi	-10.393
▁corruption	-10.3931
▁ongoing	-10.3934
za	-10.3935
▁वर्षां	-10.3942
▁knows	-10.3954
▁strengthen	-10.3956
▁कौशल्य	-10.3957
▁आनंदी	-10.3958
▁प्रत्यक्ष	-10.3963
pa	-10.3964
ात्मक	-10.3976
iti	-10.398
▁महिन्या	-10.3982
▁माझ्यासाठी	-10.3984
▁पद्धत	-10.3986
▁Telugu	-10.3991
▁presence	-10.3991
▁verdict	-10.3991
▁आसाम	-10.3991
▁अपेक्षित	-10.3991
▁thus	-10.3993
▁blast	-10.3993
▁किलो	-10.3993
▁confirmed	-10.3995
▁मुस्लिम	-10.3995
▁sustained	-10.3996
▁removed	-10.3996
▁पाकिस्तानने	-10.3996
▁सैन्य	-10.3997
▁कुणाला	-10.3998
▁स्वरूप	-10.3999
▁treated	-10.4001
▁प्रकाशित	-10.4003
▁दिवसांत	-10.4006
land	-10.4008
ुल	-10.4009
▁बैठकीला	-10.4011
ांतील	-10.4012
▁events	-10.4014
▁healthy	-10.4015
▁enter	-10.4016
▁साधन	-10.402
▁north	-10.4023
र्ट	-10.4025
▁तातडीन	-10.4027
▁Ministers	-10.4033
os	-10.4038
पाल	-10.4038
res	-10.404
▁मीटर	-10.4047
▁क्षण	-10.4048
▁हातात	-10.4049
▁player	-10.4049
▁देवाची	-10.405
▁Jerusalem	-10.4056
▁status	-10.4056
▁नव्हतं	-10.4056
▁सिन्हा	-10.4056
▁दुष्ट	-10.4056
▁पहिल्यांदाच	-10.406
▁जागांवर	-10.4064
▁सारा	-10.4064
▁questioned	-10.4065
▁युवा	-10.4065
▁कोंडी	-10.4067
▁दुखापत	-10.4072
▁प्रसाद	-10.4073
▁संप	-10.4077
▁thinking	-10.4078
▁केल्याचा	-10.4087
▁उपमुख्यमंत्री	-10.4096
▁option	-10.4098
▁door	-10.4104
▁तसा	-10.4108
▁सहज	-10.4108
▁cr	-10.4112
line	-10.4112
▁स्पर्धे	-10.4119
▁numbers	-10.412
▁Corporation	-10.4121
▁Kovind	-10.4121
▁शेट्टी	-10.4121
▁submitted	-10.4121
▁Express	-10.4122
▁शनिवारी	-10.4123
▁बाळग	-10.4127
▁नॅशनल	-10.4127
▁२३	-10.4127
▁Dev	-10.4141
▁कोटीं	-10.4145
▁target	-10.4145
▁comment	-10.4146
▁कालावधी	-10.415
▁बँके	-10.4153
▁गा	-10.4155
bu	-10.4159
▁drink	-10.4162
▁competition	-10.4163
▁कोणता	-10.4163
▁severe	-10.4179
▁संशयित	-10.4179
▁significant	-10.4181
▁स्थिर	-10.4185
▁सामंजस्य	-10.4186
▁Word	-10.4186
▁गुरुवारी	-10.4186
▁क्रिकेटपटू	-10.4187
▁leadership	-10.4189
▁दलाच्या	-10.4193
▁सुरुवातीला	-10.4197
▁मो	-10.4198
ऊ	-10.42
▁शोक	-10.4203
od	-10.4204
▁--	-10.4215
▁value	-10.4221
▁धन	-10.4221
▁डि	-10.4222
▁राज्याच्या	-10.4225
▁घालण्या	-10.4229
▁difference	-10.4229
ron	-10.4231
▁honour	-10.4234
▁विषयावर	-10.4238
ांमुळे	-10.4238
▁happens	-10.4241
▁servants	-10.4242
▁देवाचे	-10.4247
ists	-10.4249
▁Further	-10.4252
▁London	-10.4252
▁essential	-10.4252
▁squad	-10.4252
▁website	-10.4252
▁एकदिवसीय	-10.4252
▁इम्रान	-10.4252
▁relief	-10.4252
▁vice	-10.4252
son	-10.4253
▁Lo	-10.4253
▁चालत	-10.4255
▁सामोर	-10.4255
▁मिळवून	-10.4261
▁spoken	-10.4261
▁Mary	-10.4267
▁आहेस	-10.427
▁केल्यामुळे	-10.4274
▁Alia	-10.4274
▁concerned	-10.4275
one	-10.4279
▁डिझेल	-10.4285
▁presented	-10.4286
▁pass	-10.4286
▁stage	-10.4288
▁t	-10.4293
्ट	-10.4298
om	-10.4305
▁सज्ज	-10.4306
▁इतके	-10.4307
▁continues	-10.431
▁नागरी	-10.4311
ोड	-10.4317
▁south	-10.4318
▁Research	-10.4318
▁Sitharaman	-10.4318
▁crisis	-10.4318
▁ट्रेलर	-10.4318
▁एकच	-10.4318
▁fellow	-10.4319
▁spent	-10.4319
▁Currently	-10.4319
▁जसे	-10.4321
▁विद्यार्थ्यांनी	-10.4322
टर	-10.4325
In	-10.434
गर	-10.4343
▁finally	-10.4346
ान	-10.4347
▁Ho	-10.4347
ायचं	-10.4352
▁त्याबद्दल	-10.4355
▁शांती	-10.4366
▁आठवण	-10.4374
▁Son	-10.4376
ite	-10.4384
▁Nitish	-10.4385
▁Telangana	-10.4385
▁deputy	-10.4385
▁finance	-10.4385
▁सर्वोत्कृष्ट	-10.4385
▁assistance	-10.4385
▁2022	-10.4385
▁चोरी	-10.4386
▁दिवसांपूर्वी	-10.4386
▁handed	-10.439
▁इंडियन	-10.439
▁goal	-10.4393
▁Ni	-10.4394
▁आणण्या	-10.4397
▁मूल्य	-10.4398
तर	-10.4403
▁बराच	-10.4405
▁मंत्रालयाने	-10.4408
▁tweet	-10.4413
▁शिवसेनेचे	-10.4413
▁बाजूला	-10.442
per	-10.4425
▁न्यायाधीश	-10.4425
▁इराण	-10.4432
िर	-10.4435
ाखाली	-10.4441
▁भविष्यात	-10.4443
▁Ayodhya	-10.4452
▁sugar	-10.4452
▁ब्रिटन	-10.4452
▁Heavy	-10.4452
▁sitting	-10.4453
▁सामील	-10.4455
▁survived	-10.4456
iv	-10.4457
▁Ahmedabad	-10.4459
▁extended	-10.4462
19	-10.4463
लाल	-10.4465
pl	-10.4471
▁उतर	-10.4471
▁sp	-10.4473
▁Maha	-10.4474
०००	-10.4477
▁यहोवाला	-10.4478
▁attempt	-10.4481
▁card	-10.4484
▁दिन	-10.4495
▁conditions	-10.4498
▁article	-10.4499
▁image	-10.4514
▁आलो	-10.4517
▁sexual	-10.4519
▁knew	-10.452
▁firing	-10.452
पुढे	-10.452
▁उपाध्यक्ष	-10.452
▁Keep	-10.452
▁nine	-10.452
▁दोघांनी	-10.4521
▁नऊ	-10.4523
▁Nepal	-10.4524
▁म्हणाली	-10.4526
▁ऐकून	-10.4531
▁देण्याचा	-10.4536
▁joy	-10.4538
▁दलाचे	-10.4539
▁परमेश्वराने	-10.454
run	-10.454
▁योगी	-10.4544
सारखी	-10.4548
▁आजही	-10.455
▁रोज	-10.4553
▁खून	-10.4558
▁screen	-10.456
बरोबरच	-10.4564
▁audience	-10.4567
▁apostle	-10.4567
▁solution	-10.4567
▁जोर	-10.4568
▁दत्त	-10.4571
▁etc	-10.4574
▁विकत	-10.4576
▁मानसिक	-10.4583
▁पोहोचले	-10.4585
▁cricketer	-10.4585
▁मुद्दे	-10.4587
▁Jaitley	-10.4588
▁science	-10.4588
▁अज्ञात	-10.4588
▁वारंवार	-10.4588
▁bilateral	-10.4588
▁शासकीय	-10.4588
▁ऐतिहासिक	-10.459
▁lose	-10.459
▁अधिकाऱ्यांनी	-10.459
▁डिजिटल	-10.459
▁पौलाने	-10.4593
ari	-10.4595
▁उचल	-10.4595
▁joint	-10.4595
▁महत्त्वाच्या	-10.4598
▁wicket	-10.4598
▁UN	-10.4598
▁इतका	-10.4599
▁इंटरनेट	-10.4601
▁आयोगा	-10.4602
्ह	-10.4603
▁नेमके	-10.4604
▁परदेशी	-10.4605
40	-10.4605
▁घडत	-10.4611
▁विक	-10.4622
▁अल	-10.4624
्यावर	-10.4644
▁rescue	-10.4648
▁physical	-10.4648
rd	-10.465
▁युवक	-10.4651
▁पाण्या	-10.4655
▁उपांत्य	-10.4656
▁British	-10.4656
▁College	-10.4656
▁Odisha	-10.4656
▁Shinde	-10.4656
▁defence	-10.4656
▁आरक्षण	-10.4656
▁वैयक्तिक	-10.4656
▁wisdom	-10.4656
▁spokesperson	-10.4656
▁ठाकूर	-10.4656
▁मनोहर	-10.4656
▁पदवी	-10.4657
▁scheduled	-10.4661
▁हाच	-10.4663
▁साथ	-10.4664
लि	-10.4669
▁terms	-10.4669
nu	-10.4673
▁levels	-10.4681
▁touch	-10.4683
▁faced	-10.4684
▁आयुष्यात	-10.47
This	-10.4701
तः	-10.4701
▁)	-10.4702
▁beat	-10.4704
▁बांध	-10.4706
▁येण्या	-10.4707
▁करण्या	-10.4708
▁पडल्या	-10.4713
▁व्यक्‍त	-10.4713
▁आपल्याकडे	-10.4717
ांसोबत	-10.472
▁commit	-10.4721
▁जोड	-10.4721
▁flow	-10.4722
▁हजेरी	-10.4725
▁किलोमीटर	-10.4725
▁एकमेव	-10.4725
▁जाणाऱ्या	-10.4727
▁नैसर्गिक	-10.4728
▁batsman	-10.4732
▁त्याबाबत	-10.4738
▁kids	-10.4739
९	-10.4751
▁हस	-10.4751
गे	-10.4754
▁review	-10.4757
▁प्रमाणावर	-10.476
▁भेटी	-10.4765
▁75	-10.4765
▁buy	-10.4768
▁wait	-10.4771
▁प्रसंग	-10.4775
▁शंका	-10.4775
▁groups	-10.4776
▁उद्दिष्ट	-10.4779
▁पौल	-10.4783
▁देतात	-10.4784
▁starr	-10.4786
▁previous	-10.4787
पे	-10.4787
▁Chhattisgarh	-10.4794
▁French	-10.4794
▁कोविंद	-10.4794
▁पुष्कळ	-10.4794
▁बंदोबस्त	-10.4794
pe	-10.4796
▁समज	-10.4797
▁path	-10.4797
▁खरोखर	-10.4799
▁Arjun	-10.4802
▁शुल्क	-10.4803
स्थान	-10.4814
▁घेण्या	-10.4816
▁develop	-10.4821
▁रॉय	-10.4822
▁जनतेला	-10.4823
▁य	-10.4825
▁protests	-10.4827
▁सांग	-10.4832
▁समजू	-10.4838
▁फिर	-10.4839
ेकर	-10.4841
▁टीव्ही	-10.4842
▁firm	-10.4846
▁fun	-10.4857
▁फायदे	-10.4864
▁Krishna	-10.4864
▁Manohar	-10.4864
▁जनरल	-10.4864
▁येथून	-10.4864
▁व्यायाम	-10.4864
▁deceased	-10.4864
▁Nothing	-10.4864
▁Yogi	-10.4865
▁त्वर	-10.4865
▁सुपर	-10.4867
▁हरियाणा	-10.487
▁खरी	-10.487
तर्फे	-10.4871
▁घाटन	-10.4872
▁प्रभावी	-10.4873
▁Bengaluru	-10.4874
ाप्रमाणे	-10.4875
▁आल्यानंतर	-10.4875
खाली	-10.4875
▁rising	-10.4878
▁धावांची	-10.4887
▁गोवा	-10.4889
▁दुरुस्ती	-10.489
ॉन	-10.4893
▁Ki	-10.4896
▁किंमती	-10.4904
▁त्यांच्याकडून	-10.4908
बे	-10.4911
आम्ही	-10.4913
▁Fa	-10.4914
पद	-10.4914
▁boy	-10.4917
▁source	-10.4917
▁१००	-10.4918
▁चाल	-10.4918
▁loan	-10.4918
▁r	-10.4922
▁धर	-10.4928
ship	-10.493
▁समाविष्ट	-10.4932
▁gives	-10.4932
णारा	-10.4934
▁Another	-10.4935
▁Association	-10.4935
▁Diwali	-10.4935
▁receiving	-10.4935
▁कोलकाता	-10.4935
▁विषाणू	-10.4935
▁fuel	-10.4935
▁मित्रांनो	-10.4935
▁Afghanistan	-10.4936
▁established	-10.4947
▁लक्षणे	-10.4948
▁स्टार	-10.495
संदर्भात	-10.4952
▁दि	-10.4955
▁शा	-10.4959
विषय	-10.496
▁Sha	-10.4967
▁कोणालाही	-10.4971
▁यावरून	-10.4973
▁grow	-10.4976
▁बो	-10.4978
▁humans	-10.4983
▁प्राधान्य	-10.5006
▁perfect	-10.5006
▁अचानक	-10.5006
▁प्रशासक	-10.5006
▁महात्मा	-10.5006
▁संताप	-10.5006
▁Adityanath	-10.5006
▁मेट्रो	-10.5006
▁note	-10.5009
▁सामने	-10.5012
▁देता	-10.5018
az	-10.5022
▁करणारी	-10.5023
▁माझ्याकडे	-10.5026
▁सर्वांनी	-10.5032
एफ	-10.5033
▁देशांमध्ये	-10.5039
▁प्रकरणाचा	-10.5039
▁हिंसाचार	-10.5047
▁seems	-10.5047
India	-10.5049
▁वाढव	-10.505
▁reduce	-10.5051
▁talking	-10.5053
NCP	-10.5055
▁दास	-10.5062
▁immediate	-10.507
▁becoming	-10.5075
▁निरीक्षक	-10.5077
▁तेथील	-10.5077
▁ruling	-10.5077
▁Reddy	-10.5077
▁Johar	-10.5077
▁manner	-10.5079
▁Anand	-10.508
▁हून	-10.5082
▁fresh	-10.5085
▁granted	-10.5086
▁Di	-10.5089
go	-10.5089
▁Did	-10.5093
▁घडल्या	-10.5094
GB	-10.5094
▁बहिणी	-10.5095
▁मिळालेल्या	-10.5098
▁defeated	-10.51
▁वर्णन	-10.5101
वले	-10.5101
▁प्रवाशां	-10.5103
▁material	-10.5112
30	-10.5114
▁कार्यक्रमाला	-10.5115
गी	-10.5122
▁hospitals	-10.5138
ऐवजी	-10.5139
▁dispute	-10.5141
▁बाजार	-10.5147
▁access	-10.5149
▁Jadhav	-10.5149
▁रक्षण	-10.5149
▁Naidu	-10.5149
▁counsel	-10.5149
▁अफगाणिस्तान	-10.5149
▁Ranbir	-10.5149
▁Watch	-10.5149
▁आमिर	-10.515
▁जोहर	-10.515
▁सुरूच	-10.5151
▁रवी	-10.5151
▁sound	-10.5154
▁सुख	-10.5154
▁पाठवण्यात	-10.5157
▁crores	-10.5163
▁रो	-10.5172
▁प्रिय	-10.5178
▁dies	-10.5179
▁शिष्य	-10.519
▁हीच	-10.5192
▁sleep	-10.5197
ens	-10.5199
▁learning	-10.5201
▁वाटले	-10.5204
▁नेत्या	-10.5205
▁नाटक	-10.5213
▁दावीद	-10.5216
▁वार	-10.5219
▁प्रसार	-10.522
▁Mishra	-10.5222
▁आंबेडकर	-10.5222
▁बहुतांश	-10.5222
▁इंधन	-10.5222
▁वेगळा	-10.5222
▁trailer	-10.5224
▁Station	-10.5224
ning	-10.5225
▁Se	-10.5225
▁विभागा	-10.5225
▁Make	-10.5226
▁पोलिसांकडून	-10.5228
▁forget	-10.523
▁माझ्यावर	-10.5233
▁राहतील	-10.5235
▁सेवे	-10.524
▁deep	-10.5248
▁माल	-10.525
▁मंदिरात	-10.525
▁पुढच्या	-10.5256
▁awarded	-10.5257
ug	-10.5257
▁कळत	-10.5259
ard	-10.526
झी	-10.5263
fi	-10.5264
ये	-10.527
▁दृष्टिकोन	-10.5271
▁वर्षांच्या	-10.5274
▁मोठय	-10.528
▁संघाने	-10.5283
▁जाण	-10.5286
way	-10.5289
▁Abraham	-10.5295
▁Pulwama	-10.5295
▁तैनात	-10.5295
▁कार्यकर्ते	-10.5295
▁Nirmala	-10.5295
▁Naik	-10.5295
▁आलिया	-10.5296
▁anniversary	-10.5297
▁45	-10.53
▁बऱ्याच	-10.5307
▁माफी	-10.5308
लेला	-10.5308
▁राहिली	-10.5309
cy	-10.5311
▁शुद्ध	-10.5312
▁app	-10.5313
▁Iran	-10.5314
▁गटात	-10.5315
रु	-10.5319
▁options	-10.5321
▁पुढ	-10.5324
र्ड	-10.5324
▁photos	-10.533
▁accompan	-10.5332
15	-10.5334
▁Ja	-10.5345
▁Dal	-10.5355
▁सत्र	-10.5357
▁रुपयांच्या	-10.5357
▁About	-10.5368
▁Jharkhand	-10.5368
▁aircraft	-10.5368
▁controversy	-10.5368
▁अशक्य	-10.5368
▁nature	-10.5368
▁Suresh	-10.5368
▁रस्ता	-10.5368
▁duty	-10.5368
▁Tata	-10.537
मय	-10.537
▁Roy	-10.537
▁gas	-10.5373
▁देताना	-10.5375
▁डॉक्टरांनी	-10.5376
▁काढला	-10.5379
▁mentioned	-10.538
▁doesn	-10.5382
▁thee	-10.5385
▁थांब	-10.5388
rat	-10.5394
▁वाहतुकी	-10.5397
▁weight	-10.5405
▁वाढले	-10.5409
▁ED	-10.541
▁draw	-10.5415
▁सुरूवात	-10.5415
▁break	-10.5421
गार	-10.5421
पो	-10.5423
based	-10.5424
▁अनु	-10.5424
▁फेसबुक	-10.5425
▁separate	-10.5427
▁सोहळ्या	-10.5432
ster	-10.5433
▁raise	-10.5434
▁discussions	-10.5434
▁ended	-10.544
▁minor	-10.5441
▁Social	-10.5442
▁vision	-10.5442
▁सुरेश	-10.5442
▁footage	-10.5442
▁beginning	-10.5443
▁permission	-10.5443
▁दिवाळी	-10.5443
▁running	-10.5443
▁आशियाई	-10.5443
▁करायचा	-10.5444
▁normal	-10.5444
ेड	-10.545
▁रस	-10.5451
▁विभागात	-10.5452
▁Navy	-10.5454
▁नियमित	-10.5456
▁न्यू	-10.546
con	-10.5463
▁मिळतो	-10.5473
▁awards	-10.5474
ठा	-10.5474
आधी	-10.5476
▁मर्यादा	-10.5479
▁केल्यास	-10.5485
▁टाकण्या	-10.5496
’,	-10.5499
▁मुला	-10.55
▁दिवसेंदिवस	-10.5517
▁मुसळधार	-10.5517
▁आदर्श	-10.5517
▁खाजगी	-10.5517
▁दुसऱ्‍या	-10.5517
▁Mar	-10.5517
▁Among	-10.5517
▁tough	-10.5517
▁partnership	-10.5517
▁worlds	-10.5518
▁सिंधू	-10.5518
ack	-10.5518
▁जेवण	-10.5519
▁आढळले	-10.5521
▁स्वतःच्या	-10.5522
▁नाराजी	-10.5538
▁longer	-10.5542
▁ज्यामुळे	-10.555
▁sports	-10.555
▁महाराज	-10.5551
▁products	-10.5551
▁direct	-10.556
tu	-10.556
▁ख्रिस्त	-10.5567
▁उद्या	-10.5574
▁तोपर्यंत	-10.5574
▁jobs	-10.558
▁terrorist	-10.5581
▁तसं	-10.5584
▁घालव	-10.5586
ub	-10.5588
▁जाती	-10.559
▁Ambedkar	-10.5592
▁Economic	-10.5592
▁Foreign	-10.5592
▁Transport	-10.5592
▁computer	-10.5592
▁residence	-10.5592
▁अभिनेते	-10.5592
▁शारीरिक	-10.5592
▁बाळासाहेब	-10.5592
▁गोयल	-10.5592
▁importance	-10.5592
▁massive	-10.5592
▁नोटीस	-10.5592
▁कॅमेरा	-10.5593
▁दुसरीकडे	-10.5595
▁निर्मला	-10.5599
ांबद्दल	-10.56
▁Pro	-10.56
▁resigned	-10.5601
▁लावून	-10.5602
▁ठरणार	-10.5605
▁appeared	-10.5609
▁कप	-10.5611
▁entered	-10.5613
▁गाठ	-10.5615
▁खरा	-10.5616
▁डेटा	-10.5619
▁असत	-10.562
▁approach	-10.5623
50	-10.5625
▁घटनेत	-10.5628
▁दाखव	-10.5632
▁केल्याचे	-10.5637
▁वाहने	-10.5642
▁ap	-10.5642
▁भाषेत	-10.5652
mar	-10.5653
▁42	-10.5655
▁none	-10.5657
▁natural	-10.566
ns	-10.5662
▁३१	-10.5662
▁reading	-10.5666
▁Agriculture	-10.5668
▁CEO	-10.5668
▁stood	-10.5668
▁सक्रिय	-10.5668
▁चंद्रकांत	-10.5668
▁नायडू	-10.5668
▁अब्ज	-10.5668
▁प्रियंका	-10.5668
▁धन्यवाद	-10.5668
▁Technology	-10.5668
▁वकील	-10.5668
▁घातले	-10.5668
▁पूजा	-10.5668
▁Aditya	-10.5669
▁पक्षप्रमुख	-10.5669
▁UK	-10.5671
▁लढ	-10.5672
▁exactly	-10.5673
शन	-10.5676
▁sad	-10.5676
▁ग्राहक	-10.5677
▁योजने	-10.5679
▁wise	-10.5689
▁असला	-10.5694
▁असावा	-10.5696
▁मांड	-10.5704
▁करील	-10.5707
ेशन	-10.5708
७	-10.5718
▁सरकारवर	-10.5727
▁videos	-10.5727
▁डॉलर	-10.5734
▁quit	-10.5736
▁provid	-10.5737
वली	-10.5743
▁Power	-10.5744
▁Before	-10.5744
▁dangerous	-10.5744
▁नर	-10.5744
▁टाटा	-10.5744
▁ठरेल	-10.5745
▁सल्लागार	-10.5745
▁weeks	-10.5745
▁चित्रीकरण	-10.5745
su	-10.5745
▁Bombay	-10.5747
▁सहकारी	-10.5751
▁score	-10.5752
▁नसून	-10.5752
▁सरकारची	-10.5752
क्त	-10.5754
▁incidents	-10.5754
▁तेव्हापासून	-10.5759
ions	-10.5759
▁via	-10.5759
▁उत्सव	-10.576
▁Ji	-10.576
ंगत	-10.5761
▁राग	-10.5761
ायचा	-10.5766
पत्र	-10.5766
▁lower	-10.5767
▁drinking	-10.5772
निमित्ताने	-10.5774
पुर	-10.5774
▁क्र	-10.5774
"	-10.5775
▁जवळच्या	-10.5775
nath	-10.5777
▁प्रा	-10.5778
▁bat	-10.5779
▁addressed	-10.5782
▁पड	-10.5783
▁लोकांचे	-10.5788
▁कायदे	-10.5796
▁यांच्यासोबत	-10.5798
▁दहशतवाद	-10.5798
ग्र	-10.5798
▁त्यास	-10.5799
▁खरं	-10.58
▁विनोद	-10.58
▁आत्म	-10.5803
▁Up	-10.5803
▁नेपाळ	-10.5806
▁त्यामुळेच	-10.5807
▁hundred	-10.581
▁बैठकी	-10.5814
,”	-10.5816
▁छळ	-10.5818
▁स्थळ	-10.5818
ow	-10.5819
▁effective	-10.5819
ali	-10.582
▁Gupta	-10.5821
▁Mahatma	-10.5821
▁Pandey	-10.5821
▁moving	-10.5821
▁नाईक	-10.5821
▁domestic	-10.5821
▁धक्कादायक	-10.5821
▁गेलो	-10.5822
▁अस्तित्वात	-10.5824
▁जिंकून	-10.5826
ise	-10.5826
▁foundation	-10.583
ven	-10.5833
▁आयसीसी	-10.5833
▁ठेवून	-10.5837
▁सामर्थ्य	-10.5838
▁आण	-10.5839
▁स्वामी	-10.5842
▁विभागाने	-10.5855
▁Con	-10.5857
▁प्रदेशातील	-10.586
▁पो	-10.5861
▁रोड	-10.5863
▁आवडत	-10.5864
▁अध्यक्षा	-10.5869
▁यांच्याकडे	-10.5876
▁tour	-10.5877
ंशी	-10.5878
▁अधिवेशन	-10.5881
ize	-10.5887
▁prayer	-10.5892
▁संशय	-10.5893
गड	-10.5897
▁wicked	-10.5897
▁रणबीर	-10.5899
▁caught	-10.5899
▁तपशील	-10.5899
▁Samaj	-10.5899
▁सगळं	-10.59
▁व्हावे	-10.59
▁cold	-10.59
▁ठेव	-10.5901
▁स्पष्टीकरण	-10.5902
▁जीबी	-10.5902
▁ठेवली	-10.5904
▁हृदय	-10.5908
▁बाळ	-10.591
ger	-10.5911
▁करणं	-10.5914
धा	-10.5917
▁वर्षीय	-10.5917
▁राहतात	-10.5919
▁promote	-10.5919
▁महिलांना	-10.5921
स्थापित	-10.5922
ेला	-10.5928
du	-10.593
▁reportedly	-10.5932
▁individuals	-10.5939
▁cover	-10.5939
▁नावाने	-10.5945
▁disciples	-10.595
▁चित्रपटाचा	-10.595
round	-10.5951
▁आम	-10.5952
▁lack	-10.5954
झा	-10.5954
▁36	-10.5955
▁२८	-10.5955
▁asking	-10.5956
▁understanding	-10.596
▁apply	-10.5961
▁red	-10.5962
▁produce	-10.5964
▁thousand	-10.5967
▁toll	-10.5967
▁highway	-10.5968
▁partner	-10.5968
▁देशाची	-10.597
▁असावे	-10.5971
▁पहिल्यांदा	-10.5976
▁instead	-10.5977
▁judgment	-10.5977
▁चौधरी	-10.5977
▁दूध	-10.5977
मार्फत	-10.5977
▁आदित्यनाथ	-10.5977
che	-10.5977
▁टेस्ट	-10.5977
▁atmosphere	-10.5977
▁रामनाथ	-10.5978
▁flight	-10.5978
▁लूक	-10.5978
▁ठाणे	-10.5978
▁villagers	-10.5978
▁चालना	-10.598
▁नष्ट	-10.5981
▁ऑ	-10.5988
▁प्रशासनाने	-10.5991
▁शिर	-10.5992
पूर्वी	-10.5993
▁कल	-10.5994
▁पुण्यात	-10.5995
▁देण्याचे	-10.5997
▁दरात	-10.6005
▁हर	-10.6005
si	-10.6006
▁institutions	-10.6008
▁respond	-10.6013
▁सरकारचा	-10.6014
▁वाढली	-10.6016
▁सन	-10.6017
▁अति	-10.602
▁Pal	-10.6023
▁plant	-10.6025
▁दर्शव	-10.6026
▁appear	-10.6028
au	-10.6029
▁शाळे	-10.6032
▁अ‍ॅ	-10.6035
▁games	-10.6038
ious	-10.6039
▁हु	-10.6042
▁Le	-10.6047
मागे	-10.6052
▁ची	-10.6055
und	-10.6055
▁facility	-10.6055
▁उल्लंघन	-10.6055
▁प्रत्युत्तर	-10.6055
▁तुलना	-10.6055
▁कायदेशीर	-10.6055
▁multiple	-10.6056
▁प्राचीन	-10.6056
▁नीट	-10.6056
▁laid	-10.6056
▁NDA	-10.6056
▁Thane	-10.6058
▁cancer	-10.6059
ादरम्यान	-10.606
वादी	-10.6062
▁असली	-10.6062
ory	-10.6063
ging	-10.6067
▁shown	-10.6069
▁असावी	-10.6073
▁दौऱ्यावर	-10.6074
▁घेतलं	-10.6077
सो	-10.6079
वळ	-10.6081
ator	-10.6081
van	-10.6089
▁संसद	-10.6089
▁Li	-10.6095
▁character	-10.6101
▁33	-10.6103
▁साखर	-10.6113
▁बायबलमध्ये	-10.6119
ंडा	-10.6122
ीम	-10.6123
mer	-10.6125
▁सांगू	-10.6131
ac	-10.6132
▁Th	-10.6133
▁happiness	-10.6135
▁storage	-10.6135
▁सर्वसामान्य	-10.6135
▁Out	-10.6136
▁League	-10.6137
▁योहान	-10.6139
▁achieve	-10.6139
▁bear	-10.614
सोबतच	-10.6145
▁missing	-10.6145
▁शकला	-10.6146
IC	-10.6146
▁कसं	-10.6147
▁signed	-10.6151
▁वाग	-10.6152
▁centre	-10.6155
▁aware	-10.6155
क्र	-10.6155
▁चढ	-10.6159
▁दार	-10.6167
▁तिच्यावर	-10.6169
▁ball	-10.6171
▁जर्मनी	-10.6184
▁तुम्हा	-10.6186
▁handle	-10.6189
▁झाल्यावर	-10.6194
▁सरकारचे	-10.6196
▁alert	-10.6197
ार्थ	-10.62
▁पळ	-10.6205
▁लोकसभेत	-10.6212
▁सुरवात	-10.6215
▁Google	-10.6215
▁nobody	-10.6215
▁कित्येक	-10.6215
▁oath	-10.6215
▁माणसे	-10.6215
▁worry	-10.6215
▁Mission	-10.6215
▁संसर्ग	-10.622
तरी	-10.6224
बु	-10.6224
▁जाय	-10.623
▁काँग्रेसला	-10.623
▁मान्यवर	-10.6232
▁खरंच	-10.6237
▁मुलाला	-10.6244
▁जरा	-10.6245
ोन	-10.6249
्ड	-10.6252
▁Muslims	-10.6253
▁गती	-10.6254
▁ट्रेन	-10.6262
▁funds	-10.6263
स्क	-10.6266
▁पाहिजेत	-10.6273
▁वाह	-10.6276
दे	-10.6283
▁America	-10.6289
▁link	-10.629
▁fighting	-10.6291
▁drive	-10.6295
▁Civil	-10.6295
▁Judah	-10.6295
▁दौरा	-10.6296
▁implementation	-10.6296
▁Republic	-10.6297
▁झालो	-10.6297
▁सूत्रांनी	-10.6298
▁खोटे	-10.6301
देश	-10.6301
िले	-10.6303
▁होण्यास	-10.6303
▁वाजता	-10.6307
▁अपयशी	-10.6311
row	-10.6316
▁Har	-10.6317
▁प्राण	-10.6321
तु	-10.6324
▁killing	-10.6327
▁जम	-10.6328
▁पाकिस्तानचा	-10.6329
▁आकाश	-10.6329
▁thats	-10.633
▁मंडळीत	-10.6331
▁देवा	-10.6339
▁साठी	-10.6344
kh	-10.6348
▁answered	-10.6349
यू	-10.6349
▁मालक	-10.6354
शास्त्र	-10.636
▁लंडन	-10.6364
▁तोड	-10.6365
▁Dutt	-10.6365
▁संसदे	-10.6368
▁कॉलेज	-10.6369
ीर	-10.6372
▁promises	-10.6375
▁Deshmukh	-10.6377
▁female	-10.6377
▁honor	-10.6377
▁middle	-10.6377
▁सांस्कृतिक	-10.6377
▁Kuldeep	-10.6377
▁Manmohan	-10.6377
▁Malik	-10.6377
▁क्लिक	-10.6378
▁Sindhu	-10.638
▁घ्यावा	-10.6382
▁Gold	-10.6382
दान	-10.6386
▁सर्वत्र	-10.6387
▁बोर्ड	-10.6388
▁स्थानक	-10.6395
▁mission	-10.6395
▁ch	-10.6396
▁loans	-10.6397
der	-10.6399
▁पक्षांनी	-10.6402
tor	-10.6404
▁2,	-10.6406
▁आगीत	-10.6412
▁ट्विटरवर	-10.6413
पूर्वक	-10.6421
▁toss	-10.6423
▁सैनिक	-10.6426
inder	-10.6427
ल्यावर	-10.6432
ासमोर	-10.6434
▁अंग	-10.644
▁title	-10.6444
▁slow	-10.6451
▁chance	-10.6453
िज	-10.6453
ेंद्र	-10.6457
▁Life	-10.6458
▁ancient	-10.6459
▁resolution	-10.6459
▁तुझे	-10.6459
▁रिलीज	-10.6459
▁लॉकडाऊन	-10.6459
▁स्मृती	-10.6459
▁घातला	-10.6459
▁बरीच	-10.6459
▁maximum	-10.6459
▁network	-10.6459
▁बहुमत	-10.6459
▁डोळे	-10.6459
▁तुझी	-10.6459
▁Shankar	-10.6459
कृत	-10.6462
▁Islam	-10.6462
▁Shahid	-10.6464
▁टाकले	-10.6465
▁काढण्यात	-10.6469
▁plans	-10.647
▁नारायण	-10.647
▁RBI	-10.6474
▁destroyed	-10.6474
्रा	-10.6476
▁हेही	-10.6479
▁Sub	-10.648
▁आयोगाने	-10.6482
▁अव	-10.6484
▁militants	-10.6486
▁lived	-10.6489
pal	-10.6495
hal	-10.6495
▁गु	-10.6496
▁greater	-10.6498
सू	-10.65
▁claims	-10.65
ंस	-10.65
▁ओळखले	-10.6505
▁पाकिस्तानला	-10.6506
▁com	-10.651
▁Work	-10.6515
▁deliver	-10.6518
▁feeling	-10.6521
▁credit	-10.6523
▁स्वच्छता	-10.6524
▁भूमिके	-10.6526
्री	-10.6533
▁पे	-10.6534
▁initiative	-10.6536
▁तांत्रिक	-10.6541
▁सुवर्णपदक	-10.6541
▁Ashwin	-10.6541
▁संपत्ती	-10.6541
▁evil	-10.6542
▁unknown	-10.6542
▁आपत्ती	-10.6542
▁सोडव	-10.6542
▁infection	-10.6542
▁मार्गदर्शक	-10.6542
▁पुरावा	-10.6543
▁आपलं	-10.6543
▁opposed	-10.6545
▁२९	-10.6545
▁Ta	-10.6546
▁मुलं	-10.6547
▁अहमदाबाद	-10.6548
ten	-10.655
▁Park	-10.6551
▁घेण्यास	-10.6551
▁anger	-10.6552
▁matters	-10.6555
▁मारली	-10.6556
bi	-10.6556
▁commissioner	-10.6557
mon	-10.6558
▁पुर	-10.6559
▁जागी	-10.6561
▁soul	-10.6562
een	-10.6562
▁carrying	-10.6562
▁Ne	-10.6567
▁वर्षा	-10.6571
▁ज्यांना	-10.6575
▁मुख्यमंत्र्यां	-10.6577
red	-10.6577
▁त्याचं	-10.6577
▁राज्यसभेत	-10.6578
▁चर्चे	-10.6583
▁examples	-10.6592
▁त्यांच्यासोबत	-10.6597
▁headed	-10.6598
बर	-10.6601
our	-10.6605
▁खंड	-10.6606
▁stone	-10.6611
ay	-10.6614
ization	-10.6616
▁route	-10.662
▁ji	-10.662
▁अहमद	-10.6624
▁drop	-10.6625
▁संकेत	-10.6625
▁Family	-10.6625
▁myself	-10.6625
▁television	-10.6625
▁injury	-10.6625
▁Children	-10.6625
▁अंबानी	-10.6625
▁गॅस	-10.6625
▁Moreover	-10.6625
▁तोडगा	-10.6625
▁लोकसंख्या	-10.6625
▁proposed	-10.6626
▁banned	-10.6627
▁wishes	-10.6629
▁section	-10.663
▁respectively	-10.663
ज्ञ	-10.6633
▁माझं	-10.6635
▁notes	-10.6636
▁चुकीचे	-10.6637
▁certainly	-10.6639
▁साल	-10.6651
▁आजच्या	-10.6652
MC	-10.6654
ham	-10.6661
्व	-10.6666
▁निक	-10.6673
cha	-10.6675
▁फाइल	-10.6676
▁ऐक	-10.6681
▁pan	-10.6683
▁Sam	-10.6685
▁Cha	-10.6689
ath	-10.6692
▁booked	-10.6692
▁जहाज	-10.6696
▁regular	-10.6701
▁परस्पर	-10.6703
▁राजे	-10.6704
र्ज	-10.6704
▁degree	-10.6705
▁civil	-10.6708
▁प्रेरणा	-10.6709
▁तेंडुलकर	-10.6709
▁mishap	-10.6709
▁छत्तीसगड	-10.6709
▁जुन्या	-10.6709
▁धमकी	-10.6709
▁तुम्हांला	-10.6709
▁symptoms	-10.6709
▁उडाली	-10.6709
▁कुलदीप	-10.6709
▁संबोधित	-10.6709
▁Ba	-10.6712
▁placed	-10.6712
▁लाग	-10.6713
▁trial	-10.6715
▁City	-10.6715
▁cultural	-10.6716
▁आणण्यासाठी	-10.6718
▁thousands	-10.6719
था	-10.6725
▁prove	-10.6727
ru	-10.6728
▁users	-10.6728
▁Post	-10.6734
▁पाठवले	-10.6735
▁यहोवाचे	-10.6738
▁Time	-10.6741
▁नेता	-10.6743
▁ma	-10.6746
▁rates	-10.6748
▁lay	-10.6752
▁२६	-10.6752
▁ज्यात	-10.6753
▁रुपयांचे	-10.6756
ावं	-10.6757
ash	-10.6758
ाप	-10.6762
hath	-10.6767
▁schemes	-10.6768
▁animals	-10.6772
▁दिवसात	-10.6774
▁पाव	-10.6775
▁विश्व	-10.678
कु	-10.6782
▁उठ	-10.6786
▁Lal	-10.6789
▁occur	-10.6793
▁आत्म्या	-10.6793
▁Although	-10.6793
▁cabinet	-10.6793
▁worried	-10.6793
▁द्विपक्षीय	-10.6793
▁मुखर्जी	-10.6793
▁Budget	-10.6793
▁घातली	-10.6793
▁स्मार्टफोन	-10.6793
▁negative	-10.6793
▁थोडा	-10.6794
▁pending	-10.6794
▁skin	-10.6795
▁त्याचप्रमाणे	-10.6795
▁protection	-10.6795
▁प्रवक्ते	-10.6796
ीस	-10.6799
द्र	-10.6799
▁track	-10.6802
▁Mohan	-10.6803
▁demands	-10.6803
▁practice	-10.6805
▁वृत्तसंस्था	-10.6808
ांपेक्षा	-10.6809
▁Ch	-10.6815
▁command	-10.6818
▁घेण्याचा	-10.682
ाधिक	-10.6824
▁34	-10.6827
यु	-10.6828
▁Jan	-10.683
▁दिशा	-10.6833
▁स्टेशन	-10.6833
▁आत्मा	-10.6833
ain	-10.6836
▁Chand	-10.6845
▁documents	-10.6846
▁inter	-10.6849
ide	-10.6849
▁ठरवले	-10.6849
▁express	-10.6854
▁MPs	-10.6856
▁कोरिया	-10.6857
▁रुग्णालय	-10.6861
▁assault	-10.6861
▁मार्क	-10.6864
▁आफ्रिके	-10.6866
▁भाजपचा	-10.6868
▁desire	-10.6868
▁पेत्र	-10.6875
▁colleges	-10.6875
▁Control	-10.6879
▁fifth	-10.6879
▁opinion	-10.6879
▁unique	-10.6879
▁अव्वल	-10.6879
▁उर्वरित	-10.6879
▁फुट	-10.6879
▁विद्यमान	-10.6879
▁नियोजन	-10.6879
▁electricity	-10.6879
▁Maharaj	-10.6879
▁केव्हा	-10.688
▁2013	-10.688
▁subsequently	-10.688
▁जिथे	-10.6881
▁shut	-10.6882
▁व्हावी	-10.6882
▁latest	-10.6885
▁couldnt	-10.6886
▁singer	-10.6889
▁संघाला	-10.689
▁बॉक्स	-10.689
dar	-10.689
▁सराव	-10.6891
▁चोर	-10.6891
▁i	-10.6893
▁approached	-10.6899
▁धु	-10.69
tal	-10.6907
▁उत्साह	-10.691
▁लढा	-10.6924
▁waiting	-10.6926
फि	-10.6929
▁मिश्रा	-10.6933
▁पित्या	-10.6937
▁l	-10.694
▁पक्षनेते	-10.6942
▁सांगा	-10.6946
▁calls	-10.6948
▁participate	-10.6957
▁Fire	-10.6962
▁contribution	-10.6963
ade	-10.6965
▁Psalm	-10.6965
▁exchange	-10.6965
▁potential	-10.6965
▁everywhere	-10.6965
▁सक्षम	-10.6966
▁सांगितल्या	-10.6967
▁Germany	-10.6968
▁Aadhaar	-10.6968
▁initiated	-10.6968
▁model	-10.6969
▁mental	-10.6969
▁broken	-10.697
▁Happy	-10.6973
▁selected	-10.6975
▁policemen	-10.6978
मुख्यमंत्र्यांनी	-10.6981
▁looks	-10.6982
▁Tax	-10.6983
▁sharing	-10.6984
▁प्रतिमा	-10.6987
▁Does	-10.6987
▁यांसारख	-10.7005
▁कराल	-10.7007
▁आहार	-10.7009
▁प्रकरणातील	-10.7012
▁मृतां	-10.7014
▁relatives	-10.7016
lal	-10.702
ok	-10.7022
▁समाजात	-10.7022
▁संसदेत	-10.7025
▁Ju	-10.7026
▁भाजपाचे	-10.7028
ण्याचे	-10.7029
▁Bal	-10.7033
▁झारखंड	-10.7035
▁तुरुंगात	-10.7036
▁विधानसभे	-10.704
▁सावध	-10.7043
भाजप	-10.7046
▁साहाय्य	-10.7047
▁ट्वीट	-10.7047
▁showed	-10.7049
▁खंडपीठा	-10.7049
▁बहु	-10.7051
▁twice	-10.7052
▁अल्पवयीन	-10.7052
▁दिग्गज	-10.7052
▁महसूल	-10.7052
▁वितरण	-10.7052
▁coast	-10.7052
▁rather	-10.7052
▁agency	-10.7052
▁देईल	-10.7052
▁पराभूत	-10.7052
▁Investigation	-10.7054
▁writing	-10.7055
▁circumstances	-10.7056
▁पुलवामा	-10.7056
▁sort	-10.7056
▁विमा	-10.7058
▁प्रवाशांना	-10.7059
▁दुपारी	-10.706
▁लष्कर	-10.7061
▁directly	-10.7061
▁राहण्याची	-10.7061
▁प्रक्रिये	-10.7064
▁UP	-10.7064
▁busy	-10.7064
▁दिव	-10.7066
▁preaching	-10.7066
डो	-10.7067
▁गोलंदाजी	-10.7077
▁forth	-10.7077
▁offering	-10.7088
▁इतिहासात	-10.7088
▁मागण्या	-10.7089
▁Kings	-10.7089
if	-10.7102
▁Leader	-10.711
मु	-10.7112
▁आश्चर्य	-10.7116
एक	-10.7118
ऱ	-10.7118
▁movies	-10.7119
▁threat	-10.7121
▁crops	-10.7126
▁double	-10.7131
ery	-10.7139
▁Service	-10.714
▁फुटबॉल	-10.714
▁वाढला	-10.714
▁afraid	-10.714
▁दुष्काळ	-10.714
▁महापौर	-10.714
▁color	-10.714
▁Chandrakant	-10.714
▁trees	-10.714
▁श्रीमंत	-10.714
▁Swaraj	-10.714
▁Ambani	-10.714
▁tree	-10.714
▁ourselves	-10.714
▁पांडे	-10.714
▁कुठली	-10.7141
▁weather	-10.7142
▁नंबर	-10.7142
▁खो	-10.7142
▁dismissed	-10.7143
▁introduced	-10.7143
▁Show	-10.7144
▁specific	-10.7144
▁imposed	-10.7144
▁इतक्या	-10.7145
▁feet	-10.7145
▁agreed	-10.7147
▁reduced	-10.715
▁याकडे	-10.7153
wal	-10.7154
▁मध्यम	-10.7158
▁अंत	-10.7161
▁मारले	-10.717
▁पाकिस्तानात	-10.7175
हार	-10.7177
करण	-10.718
▁Per	-10.7181
com	-10.7182
▁निवृत्ती	-10.7183
▁learned	-10.7187
मेंट	-10.7194
▁कंपन्या	-10.7204
▁भा	-10.7207
▁अध्यक्षपद	-10.7207
▁fully	-10.7208
म्	-10.721
▁रुपया	-10.721
िला	-10.7218
uddin	-10.7218
च्छ	-10.7224
▁Ravindra	-10.7228
▁Scheme	-10.7228
▁choose	-10.7228
▁हळूहळू	-10.7228
▁दमदार	-10.7229
▁guilty	-10.7229
▁assured	-10.723
▁फुल	-10.7232
▁मनापासून	-10.7232
▁boost	-10.7233
▁promised	-10.7237
▁en	-10.7239
of	-10.7239
▁generation	-10.7239
▁डॉलर्स	-10.724
▁Chandra	-10.7243
▁मदतीने	-10.7246
▁होण्याचा	-10.7249
ेर	-10.7252
▁प्राणी	-10.7252
▁चालले	-10.7252
▁आघाडीवर	-10.7257
ांचं	-10.7258
▁हित	-10.7259
▁Well	-10.7262
▁warm	-10.7263
▁राहते	-10.7265
▁वाटा	-10.7269
▁आधारे	-10.727
▁संगणक	-10.7271
▁Padma	-10.7276
ect	-10.7277
▁एखाद	-10.7277
▁जयंत	-10.7278
▁demanding	-10.7279
▁संघाच्या	-10.728
▁भूमी	-10.7284
▁इं	-10.7287
▁Car	-10.7288
▁imp	-10.7292
▁कशाला	-10.7293
▁डॉक्टरां	-10.7294
▁जलद	-10.7299
▁देण्या	-10.7299
▁sign	-10.7304
▁देवाचा	-10.7308
▁sacrifice	-10.731
▁promise	-10.7311
माझ्या	-10.7314
▁ट्र	-10.7316
▁Uttarakhand	-10.7318
▁absconding	-10.7318
▁pandemic	-10.7318
▁pollution	-10.7318
▁baby	-10.7318
▁cinema	-10.7318
▁उत्पादक	-10.7318
▁हार्दिक	-10.7318
▁घ्यायला	-10.7318
▁Kareena	-10.7318
▁Food	-10.7318
▁रवींद्र	-10.7318
▁program	-10.7318
▁Fund	-10.7319
▁doubt	-10.7319
▁साकारत	-10.732
▁panel	-10.732
▁confident	-10.7321
▁eye	-10.7321
▁कोल्हापूर	-10.7323
▁जॉन	-10.7328
▁farmer	-10.7331
▁performed	-10.7331
▁supported	-10.7336
चार	-10.7341
▁एकत्रित	-10.7342
▁65	-10.7342
gu	-10.7344
▁अभियान	-10.7344
▁लष्करी	-10.7348
▁चंद्र	-10.7351
▁MoU	-10.7352
वीर	-10.7355
ींग	-10.7356
▁victims	-10.7359
▁ताप	-10.7367
▁यू	-10.7368
▁निवडणुकां	-10.7372
ping	-10.7372
▁विमानतळावर	-10.7379
10	-10.7389
▁त्यांच्याशी	-10.7396
▁rail	-10.7407
▁Varanasi	-10.7408
▁किरकोळ	-10.7408
▁छोट्या	-10.7408
▁तिकीट	-10.7408
▁तिन्ही	-10.7408
▁virus	-10.7408
▁constituencies	-10.7408
▁मनमोहन	-10.7408
▁वतीने	-10.7408
▁Thank	-10.7411
▁organized	-10.7411
▁प्रो	-10.7412
भाव	-10.7414
▁कामकाज	-10.7414
▁independent	-10.7415
्ल	-10.7418
करी	-10.7419
▁clash	-10.7421
▁accidents	-10.7426
▁आयात	-10.7431
ंसह	-10.7435
▁resources	-10.7435
▁BSP	-10.7436
▁घड	-10.7436
▁धीर	-10.7437
▁stands	-10.7438
▁अम	-10.7439
▁पु	-10.7441
aj	-10.7453
▁सामन्यां	-10.7455
दि	-10.7467
▁ताकद	-10.7468
▁पडणार	-10.7468
त्य	-10.7477
▁दोष	-10.7485
▁37	-10.7489
▁मोदींना	-10.749
▁कामात	-10.7492
गत	-10.7495
▁comfort	-10.7497
▁पैकी	-10.7497
▁DELHI	-10.7499
▁serving	-10.7499
▁struggle	-10.7499
▁आवश्‍यक	-10.7499
▁कंगना	-10.7499
▁दबाव	-10.7499
▁द्यायला	-10.7499
▁सुमारा	-10.7499
▁आक्षेप	-10.7499
▁कशाप्रकारे	-10.7499
▁Recently	-10.7499
▁Deepak	-10.7499
▁Narayan	-10.7499
▁property	-10.7499
▁समाजवादी	-10.7499
▁reward	-10.75
king	-10.7501
▁associated	-10.7502
▁मलिक	-10.7504
▁रेड्डी	-10.7506
▁सापडला	-10.7508
▁god	-10.751
▁नाशिक	-10.751
▁Ga	-10.751
▁choice	-10.7512
▁अनुकरण	-10.7514
▁दिलासा	-10.7518
▁teaching	-10.752
▁घडला	-10.752
जो	-10.7521
▁पाण्याची	-10.7525
▁नौदल	-10.7525
▁v	-10.7541
▁suffer	-10.7549
▁नेतृत्वाखाली	-10.7555
▁See	-10.7559
▁आप	-10.7559
les	-10.7561
▁व्यवस्थे	-10.7565
▁त्यानं	-10.7566
▁इतरांना	-10.757
ेने	-10.7575
vo	-10.7579
▁proper	-10.7582
▁Municipal	-10.7589
▁Kangana	-10.759
▁उत्तराखंड	-10.759
▁ठोस	-10.759
▁दरवर्षी	-10.759
▁smartphone	-10.759
▁ध्येय	-10.759
▁व्हायरस	-10.759
▁अभिषेक	-10.759
▁cancelled	-10.7591
▁फूट	-10.7591
▁अनुदान	-10.7591
▁अपवाद	-10.7591
▁प्रमाणपत्र	-10.7591
▁scam	-10.7592
▁बार	-10.7593
▁मुंडे	-10.7594
▁ticket	-10.7594
▁येणे	-10.7594
▁college	-10.7594
▁investigated	-10.7595
▁powerful	-10.7605
▁असतं	-10.7608
क्ट	-10.7608
▁कुटुंबातील	-10.7609
ities	-10.761
▁इथल	-10.7611
▁वाटतं	-10.7612
▁किमी	-10.7614
▁Kan	-10.7617
▁परीक्षे	-10.7618
ॅट	-10.762
▁believed	-10.7621
ांपासून	-10.7628
▁rupees	-10.7639
▁expect	-10.7639
▁भ्रष्टाचार	-10.7645
र्ण	-10.7648
▁त्यातच	-10.7648
▁मुंबईच्या	-10.7651
▁उभारण्या	-10.7652
▁पहिलाच	-10.7654
ोल	-10.7659
▁बिन	-10.7659
▁रूप	-10.7665
▁Ar	-10.7667
▁resulted	-10.7668
bar	-10.7671
▁विकेट	-10.7673
▁particular	-10.7675
िता	-10.7676
▁forest	-10.7677
▁consist	-10.7682
▁survey	-10.7683
▁इंदिरा	-10.7683
▁रेकॉर्ड	-10.7683
▁वाजपेयी	-10.7683
▁कार्यवाही	-10.7683
▁salt	-10.7683
▁पुढाकार	-10.7683
▁संदीप	-10.7683
▁झळकणार	-10.7684
▁James	-10.7684
▁creation	-10.7685
▁इच्छित	-10.7685
▁अवघ्या	-10.7686
▁दीपक	-10.7686
▁ओढ	-10.7687
ॉल	-10.7689
▁famous	-10.7691
▁व्यवस्थापक	-10.7693
▁परिवर्तन	-10.7695
हू	-10.7695
▁स्वराज	-10.7696
▁vegetables	-10.77
▁क्रमवारीत	-10.7702
▁म्हण	-10.7703
▁responded	-10.7704
ल्ड	-10.7705
▁400	-10.7705
▁वरील	-10.7705
▁answers	-10.7708
yan	-10.7709
जर	-10.7711
▁Rajesh	-10.7711
▁मुलांच्या	-10.7712
▁फारच	-10.7713
▁वाटतो	-10.7715
▁3:	-10.7721
्यांना	-10.7722
hy	-10.7723
▁त्याच्याकडे	-10.7725
par	-10.7728
▁अधिकाऱ्यां	-10.7732
▁remarks	-10.7733
▁शकतील	-10.7739
कल	-10.774
▁flood	-10.774
▁लॉ	-10.7741
▁64	-10.7744
▁४०	-10.7744
▁व्यापारी	-10.7748
▁सोडले	-10.7754
अंतर्गत	-10.7755
▁carry	-10.7756
▁destroy	-10.7759
▁limit	-10.7764
▁4:	-10.7764
▁मेहनत	-10.7769
ib	-10.7771
▁trouble	-10.7771
▁correct	-10.7772
▁Europe	-10.7774
▁घरे	-10.7776
▁anointed	-10.7776
▁attitude	-10.7776
▁glory	-10.7776
▁उपासना	-10.7776
▁एक्स्प्रेस	-10.7776
▁सरासरी	-10.7776
▁Everything	-10.7776
▁Citizenship	-10.7776
▁ऑनलाइन	-10.7776
▁हस्तक्षेप	-10.7776
▁race	-10.7776
▁Goyal	-10.7777
▁येशूला	-10.7777
▁दुसर्‍या	-10.7777
▁Look	-10.7777
▁सावंत	-10.7777
▁गरम	-10.7777
▁मनोज	-10.7778
▁NEW	-10.7784
▁welcomed	-10.7787
▁रूग्णालयात	-10.7789
▁बनवण्या	-10.779
▁मेरी	-10.7797
▁type	-10.7797
▁waste	-10.7798
▁मूर्ती	-10.7798
▁हेतू	-10.7799
▁प्रारंभ	-10.7799
ped	-10.78
▁writer	-10.7801
▁रचना	-10.7803
ble	-10.7804
▁internal	-10.7806
jan	-10.7807
▁राज्यांमध्ये	-10.7807
खर	-10.781
▁नजर	-10.7813
यो	-10.7816
tha	-10.7817
▁कोसळ	-10.7818
▁केलाय	-10.782
▁पोट	-10.7821
ip	-10.7824
▁unit	-10.7827
▁producer	-10.7828
▁कालावधीत	-10.7829
▁सोय	-10.7829
साहेब	-10.7845
▁निराश	-10.7847
▁अँड	-10.7848
▁पिण्या	-10.7848
्रो	-10.7851
▁खात्यात	-10.7854
▁pace	-10.7856
▁कुल	-10.7859
ie	-10.7863
▁Additional	-10.7863
▁प्रतिबंध	-10.7864
▁remaining	-10.7865
िस्ट	-10.7865
▁छान	-10.7869
▁मुदत	-10.787
▁Scriptures	-10.7871
▁changing	-10.7871
▁सविस्तर	-10.7871
▁Business	-10.7871
▁नीतिसूत्र	-10.7871
▁अर्थसंकल्प	-10.7871
▁fought	-10.7871
▁वेतन	-10.7871
▁pair	-10.7871
▁प्रयोग	-10.7872
▁भट्ट	-10.7872
▁वायू	-10.7873
▁followers	-10.7875
q	-10.7875
▁Shi	-10.7876
▁सर्वांचे	-10.7876
▁2018-19	-10.7876
▁लस	-10.7878
▁proved	-10.788
▁एफ	-10.7881
▁Sports	-10.7885
▁प्रदूषण	-10.7885
▁राखून	-10.7887
▁Mohammed	-10.789
▁wind	-10.7892
क्या	-10.7897
▁हाय	-10.7897
नाथ	-10.7901
▁comments	-10.7904
▁स्वर्ग	-10.7912
▁अर्थव्यवस्थे	-10.7912
▁Ver	-10.7919
▁यशया	-10.7923
▁वृद्ध	-10.7925
▁मोह	-10.7928
▁कम	-10.793
▁El	-10.7931
▁त्याग	-10.7932
▁गाण्या	-10.7934
▁hasnt	-10.7937
▁नुकत	-10.795
ँग	-10.7951
▁जमिनी	-10.7953
▁Raja	-10.7954
▁समितीने	-10.7955
▁पोहोच	-10.7963
▁यापैकी	-10.7965
judicial	-10.7966
▁Abhishek	-10.7966
▁Smith	-10.7966
▁Yojana	-10.7966
▁technical	-10.7966
▁उद्घाटन	-10.7966
▁दृढ	-10.7966
▁प्रामुख्याने	-10.7966
▁कर्तव्य	-10.7966
▁खटला	-10.7966
द्योगिक	-10.7966
▁स्मिथ	-10.7966
▁govt	-10.7966
▁श्रद्धा	-10.7966
▁basic	-10.7966
▁7.	-10.7966
▁तिसरा	-10.7966
▁sight	-10.7967
▁नसतो	-10.7967
विरोधी	-10.7967
▁criticised	-10.7967
▁प्रशंसा	-10.7968
▁सरदार	-10.7968
▁Six	-10.7969
▁द्यावी	-10.7969
▁stable	-10.7969
▁dedicated	-10.797
thi	-10.797
▁वार्षिक	-10.7973
▁advantage	-10.7973
▁colour	-10.7973
▁संस्थे	-10.7975
11	-10.7988
र्‍या	-10.7991
ति	-10.7993
▁राजेश	-10.8001
▁मालिके	-10.8001
▁घे	-10.8017
▁IT	-10.8018
▁count	-10.8019
▁stress	-10.8024
▁addressing	-10.803
▁२७	-10.8031
▁म्हणता	-10.8038
gar	-10.8041
▁घ्यावे	-10.8043
▁ऑलिम्पिक	-10.8049
▁seed	-10.8049
▁पिक	-10.8056
▁please	-10.8057
▁Ko	-10.8058
▁plane	-10.8061
▁Manoj	-10.8062
▁activity	-10.8062
▁crucial	-10.8062
▁PTI	-10.8062
▁Pradhan	-10.8062
▁सुषमा	-10.8062
▁angry	-10.8062
▁External	-10.8062
▁entry	-10.8062
▁शेख	-10.8063
▁Saif	-10.8063
▁निशाणा	-10.8065
▁camp	-10.8068
▁exam	-10.807
▁Speaker	-10.8072
▁counter	-10.8073
▁शासनाने	-10.8074
गल	-10.8075
▁धरण	-10.8075
▁श्वास	-10.8075
off	-10.8077
▁Australian	-10.8081
▁छ	-10.8084
▁दहशतवाद्यां	-10.809
▁वर्षांत	-10.8092
▁hour	-10.8092
▁सुधार	-10.8104
▁जाळ	-10.8104
▁thoughts	-10.8105
▁pray	-10.8111
लन	-10.8115
▁provides	-10.8117
▁गोळीबारात	-10.8124
राज्य	-10.8125
▁महामार्गावर	-10.8125
▁हानी	-10.8129
▁cross	-10.813
▁करीता	-10.8137
▁succeed	-10.8141
▁diseases	-10.8143
करीता	-10.8144
▁bit	-10.8147
▁होण्या	-10.8149
▁लेखन	-10.815
्याचे	-10.8151
▁forms	-10.8152
▁shoot	-10.8152
chi	-10.8155
▁ठेवू	-10.8156
िक्स	-10.8157
▁welcome	-10.8157
▁Kar	-10.8158
▁municipal	-10.8158
▁Please	-10.8159
▁minimum	-10.8159
▁primary	-10.8159
▁उड्डाण	-10.8159
▁उपराष्ट्रपती	-10.8159
▁मनोवृत्ती	-10.8159
▁सुवर्ण	-10.8159
▁internet	-10.8159
▁समर्पित	-10.816
▁planning	-10.816
▁category	-10.816
▁Human	-10.8161
▁राहावे	-10.8162
▁praise	-10.8162
▁compared	-10.8162
▁white	-10.8165
▁उभा	-10.8165
▁यहूदा	-10.8166
▁तरीसुद्धा	-10.8167
▁balls	-10.817
▁Ca	-10.8172
ila	-10.8172
▁RSS	-10.8172
▁Officer	-10.8173
▁voters	-10.8176
▁raped	-10.8184
▁हवेत	-10.8185
्याच्या	-10.8187
▁acted	-10.8191
▁गांधींनी	-10.8193
▁मोहन	-10.8195
▁बाबा	-10.8198
मार	-10.8201
दु	-10.8203
▁principles	-10.8212
▁highly	-10.8212
▁नियंत्रणात	-10.8213
▁उर	-10.8215
▁बोलण्या	-10.8218
र्न	-10.8221
▁दिलीप	-10.8224
▁Mi	-10.8229
▁आत्महत्ये	-10.8233
▁सीमेवर	-10.8238
▁समुद्र	-10.8239
▁display	-10.824
िय	-10.8242
वाल	-10.8243
▁लाट	-10.8243
▁नावाचा	-10.8245
यन	-10.8249
▁Ad	-10.8253
tar	-10.8253
▁8.	-10.8254
▁Ganguly	-10.8257
▁simply	-10.8257
▁तारीख	-10.8257
▁आदिवासी	-10.8257
▁Mu	-10.8257
▁prominent	-10.8257
▁communication	-10.8258
▁governor	-10.8259
▁poll	-10.8259
▁Kolhapur	-10.8263
ाम	-10.8263
▁द्यावा	-10.8264
referred	-10.8264
▁particularly	-10.8265
▁ऐकले	-10.8266
▁विवेक	-10.8266
▁text	-10.8266
▁स्थगिती	-10.8266
▁होण्यासाठी	-10.8266
सर्व	-10.8267
▁centuries	-10.8267
▁whatever	-10.8268
▁सांगता	-10.8268
▁राहतो	-10.827
ned	-10.8275
▁charged	-10.8277
▁राहून	-10.8278
▁सेट	-10.8283
▁clearly	-10.8284
ep	-10.8288
▁पान	-10.8294
▁परि	-10.8297
▁पोहच	-10.8302
कू	-10.8302
▁shops	-10.8309
▁वाचन	-10.8311
▁महाराष्ट्राचे	-10.8311
▁भाजपची	-10.8313
▁ठाम	-10.8314
▁आजारी	-10.8323
▁author	-10.8325
▁विसर	-10.8327
law	-10.8332
▁लो	-10.8334
▁posts	-10.8334
▁MS	-10.8341
▁टन	-10.8345
▁agree	-10.8347
▁influence	-10.8348
▁अंतराळ	-10.8349
▁farm	-10.8349
▁खरोखरच	-10.8349
▁सुट	-10.835
ळ्या	-10.8352
▁content	-10.8352
▁Chidambaram	-10.8356
▁Devgn	-10.8356
▁Matthew	-10.8356
▁भाष्य	-10.8356
▁मोफत	-10.8356
▁मिळालं	-10.8356
▁शाखे	-10.8356
▁तेथून	-10.8356
▁थोडे	-10.8356
▁kingdom	-10.8357
▁मूलभूत	-10.8357
▁Patna	-10.8357
▁advised	-10.8358
▁पुरावे	-10.8358
▁ख्रिस्ता	-10.8359
▁सहसा	-10.836
▁अटल	-10.836
▁वैज्ञानिक	-10.8362
▁आणली	-10.8363
▁Jai	-10.8363
▁पाड	-10.8365
▁Olympic	-10.8368
सारखा	-10.8369
▁write	-10.8371
▁डावात	-10.8372
▁sometimes	-10.8373
▁भि	-10.8374
▁गुप्ता	-10.8375
पि	-10.8376
tur	-10.838
▁Mala	-10.8381
▁Y	-10.8382
▁showing	-10.8386
यान	-10.8389
ju	-10.8391
द्	-10.8392
▁announce	-10.8392
▁मिळतील	-10.8395
▁यांचं	-10.8396
▁वर्षांचा	-10.8401
▁रोम	-10.8405
▁बदलत	-10.8412
▁41	-10.8415
काळ	-10.8417
▁होताना	-10.8422
▁मोल	-10.8424
▁नकोस	-10.8425
▁देवदूत	-10.8426
ner	-10.8427
▁Men	-10.8427
▁खाते	-10.8428
▁कामा	-10.8431
▁dance	-10.8437
▁छायाचित्र	-10.8441
▁pick	-10.8447
▁चाहत्यां	-10.8448
▁connect	-10.8448
▁मिळ	-10.8451
▁महेश	-10.8454
mortem	-10.8455
१९	-10.8456
▁Consider	-10.8456
▁consecutive	-10.8456
▁floor	-10.8456
▁tomorrow	-10.8456
▁Covid	-10.8456
▁Sawant	-10.8456
▁पुस्तकात	-10.8458
▁Job	-10.8458
▁अवघड	-10.8458
▁discharged	-10.8459
▁त्यावरून	-10.8459
▁मोर्चा	-10.846
▁मनसे	-10.846
▁नसल्याने	-10.8461
▁वर्षांपासून	-10.8461
▁पुण्या	-10.8461
▁feelings	-10.8463
eshwar	-10.8467
▁Science	-10.8468
▁थांबव	-10.847
▁prayers	-10.8472
▁झाल्यामुळे	-10.8472
िव	-10.8472
▁लागतात	-10.8474
▁लिह	-10.8477
▁पाठव	-10.8483
▁विकासासाठी	-10.8484
ायत	-10.8488
▁चालला	-10.8488
▁वाज	-10.849
by	-10.8493
▁markets	-10.8498
▁tea	-10.8502
विले	-10.8504
▁गेलेल्या	-10.8505
▁बिल	-10.8507
▁महिन्यां	-10.8508
बळ	-10.851
▁नावावर	-10.8511
ामधील	-10.8513
▁चांगलीच	-10.8513
▁पंच	-10.852
ण्ड	-10.8523
▁Red	-10.8523
खी	-10.8524
ल्ल	-10.8528
▁offers	-10.8529
ps	-10.8531
▁Da	-10.8536
▁fl	-10.8538
▁दहशतवाद्यांन	-10.8539
▁चालणार	-10.8539
▁homes	-10.8543
▁strict	-10.855
▁Kamal	-10.855
▁पक्षात	-10.8551
25	-10.8553
▁Ahmed	-10.8557
▁Yoga	-10.8557
▁multi	-10.8557
▁Festival	-10.8557
▁Katrina	-10.8557
▁Welfare	-10.8557
▁studies	-10.8557
▁welfare	-10.8557
▁चिदंबरम	-10.8557
▁Vinod	-10.8557
▁compensation	-10.8557
▁रमेश	-10.8557
▁निघाले	-10.8558
▁सुभाष	-10.8558
▁कपडे	-10.8558
▁यंत्रणे	-10.8559
▁दगड	-10.8559
▁डाय	-10.856
▁राणे	-10.8562
▁पीक	-10.8562
▁निघून	-10.8564
▁जिल्हाधिकारी	-10.8566
▁विद्युत	-10.8566
▁regularly	-10.8566
que	-10.8569
val	-10.857
▁एकनाथ	-10.857
▁वाघ	-10.8574
▁गंगा	-10.8576
▁बोलले	-10.8578
▁range	-10.858
▁सेल	-10.8581
▁उत्सुक	-10.8583
▁मांडले	-10.8583
▁इमारत	-10.8584
▁वाटेल	-10.8586
रू	-10.8586
▁requested	-10.8592
▁मिळतात	-10.8594
ny	-10.8596
▁hot	-10.8601
▁acting	-10.8601
▁टिक	-10.8602
dal	-10.8603
च्च	-10.8608
▁leads	-10.8609
▁शिफारस	-10.8612
▁साक्ष	-10.8613
▁scale	-10.8617
▁वाढवण्या	-10.8618
▁एच	-10.8626
▁Korea	-10.8626
▁contract	-10.8632
▁नेत्यां	-10.8634
▁संकल्प	-10.8637
रण	-10.8637
▁अपयश	-10.8639
IS	-10.8646
▁standing	-10.8647
▁फिल्म	-10.8651
▁follows	-10.8653
had	-10.8654
▁careful	-10.8655
ॅक	-10.8658
▁सर्वांत	-10.8659
▁grand	-10.8659
▁WhatsApp	-10.8659
▁afternoon	-10.8659
▁commercial	-10.8659
▁reservation	-10.8659
▁अधीक्षक	-10.8659
▁सूचित	-10.8659
▁जीवितहानी	-10.8659
रंगाबाद	-10.8659
▁उत्कृष्ट	-10.8659
▁नगरसेवक	-10.8659
▁फ्रेंच	-10.8659
▁धान्य	-10.866
▁अवस्था	-10.866
▁auto	-10.866
▁घाबर	-10.866
▁शाहिद	-10.866
▁मास्क	-10.866
▁भु	-10.8661
▁वनडे	-10.8661
▁Last	-10.8665
▁sections	-10.8665
▁आख	-10.8667
-20	-10.8669
ंडी	-10.867
▁झालाय	-10.867
ठी	-10.8671
▁लिहून	-10.8672
▁notification	-10.8672
▁निवडणुकीसाठी	-10.8673
▁priest	-10.8674
▁पकड	-10.8676
▁witnessed	-10.8677
▁tests	-10.8677
▁शाखा	-10.868
▁परिषदेचे	-10.8682
मत	-10.8683
▁Sea	-10.8683
▁cell	-10.8686
▁आल्याचे	-10.8687
▁causes	-10.8688
ऱ्‍या	-10.8689
▁values	-10.8694
ूट	-10.8699
▁उंच	-10.8709
▁देणारे	-10.8709
▁कार्यक्रमा	-10.8711
▁sit	-10.8713
▁havent	-10.8715
▁वापरले	-10.8715
▁ठाण्या	-10.8715
▁हंगाम	-10.8716
▁राज्यसभे	-10.8717
ांविषयी	-10.8722
▁गोव्या	-10.8723
▁वाढते	-10.8724
रिया	-10.8728
ita	-10.8732
▁प्ले	-10.8732
्‍य	-10.8734
▁holds	-10.8738
▁असतानाच	-10.8743
▁pm	-10.8744
ेश्वर	-10.8758
▁greet	-10.8762
▁Bangalore	-10.8762
▁Singapore	-10.8762
▁Summit	-10.8762
▁beyond	-10.8762
▁फक्‍त	-10.8762
▁राफेल	-10.8762
▁वाणिज्य	-10.8762
▁थोडी	-10.8763
▁Varun	-10.8763
▁कष्ट	-10.8765
▁estimated	-10.8766
▁44	-10.8766
▁Dis	-10.8769
▁पाचव्या	-10.8769
ren	-10.877
▁congratulated	-10.877
▁त्यांचं	-10.8771
▁gathering	-10.8771
▁छत्रपती	-10.8773
▁वाढेल	-10.8774
▁आधारावर	-10.8775
▁कृत्ये	-10.8775
mal	-10.8777
▁स्टेट	-10.8777
ight	-10.8777
▁गुंतवणुकी	-10.8779
▁अवस्थेत	-10.8786
▁55	-10.8786
▁bridge	-10.8789
▁मोहीम	-10.879
▁अडक	-10.8791
ाच	-10.8791
▁goals	-10.8794
for	-10.8798
ण्याच्या	-10.8799
▁घेतो	-10.88
ung	-10.8802
न्यायालयीन	-10.8802
▁आवडते	-10.8804
▁दुचाकी	-10.8805
▁गुरु	-10.8806
▁पक्षाने	-10.8807
▁केंद्रित	-10.8814
▁Shikha	-10.8821
▁witness	-10.8822
▁elders	-10.8827
▁पावसाचा	-10.8833
▁सापडले	-10.8835
चिनी	-10.8837
▁उपस्थितीत	-10.8839
▁ran	-10.884
end	-10.8848
▁हॉटेल	-10.8849
ेक	-10.8851
▁यरुशलेम	-10.8854
▁कोर	-10.8855
▁favour	-10.8861
ft	-10.8864
▁इंडिज	-10.8866
▁Parrikar	-10.8867
▁independence	-10.8867
▁निष्कर्ष	-10.8867
▁रवाना	-10.8867
▁बातम्या	-10.8867
समवेत	-10.8867
SP	-10.8867
▁semi	-10.8867
▁CRPF	-10.8867
▁धोकादायक	-10.8867
▁मर्यादित	-10.8867
▁planned	-10.8867
▁मुकेश	-10.8867
▁Subhas	-10.8868
▁ODIs	-10.8869
▁देणाऱ्या	-10.887
▁sold	-10.887
▁फाशी	-10.8871
▁सरळ	-10.8871
▁Speak	-10.8873
▁Jo	-10.8873
न्न	-10.8874
प्रसंगी	-10.8874
▁मंत्रालया	-10.8876
▁division	-10.8877
▁आफ्रिका	-10.8877
तुम्ही	-10.8879
▁पुरव	-10.888
▁भाषांतर	-10.8882
▁approves	-10.8883
▁platform	-10.8883
▁crop	-10.8884
-1	-10.8886
ala	-10.8887
bb	-10.8888
▁fields	-10.8897
चित	-10.8898
▁परिसर	-10.8903
▁mere	-10.8906
▁घेतलेल्या	-10.8907
▁tested	-10.8912
▁Si	-10.8915
▁Youth	-10.8917
▁holding	-10.8917
▁wide	-10.8923
▁testing	-10.8928
▁कोहलीने	-10.893
ल्स	-10.8931
▁परिषदे	-10.8932
▁बॉलिवूडमध्ये	-10.8937
▁organisations	-10.8937
ांमधून	-10.8943
▁घसरण	-10.8945
▁spend	-10.8948
▁Pat	-10.8949
▁क्रिकेटमध्ये	-10.895
▁Harsh	-10.895
▁provision	-10.8951
▁mo	-10.8951
▁त्यांच्यासाठी	-10.8951
▁Das	-10.8958
▁lies	-10.8958
port	-10.8959
▁Olympics	-10.896
▁Jayant	-10.8969
▁represent	-10.897
▁sell	-10.897
▁council	-10.8972
▁opposite	-10.8972
▁जेणेकर	-10.8972
▁रिंगणात	-10.8972
▁वाराणसी	-10.8972
▁pull	-10.8972
▁क्षमते	-10.8972
▁parliamentary	-10.8972
▁सैफ	-10.8972
▁पुरेसे	-10.8972
▁Year	-10.8973
▁गोळा	-10.8973
▁commitment	-10.8977
▁resolve	-10.8979
▁inaugurated	-10.898
▁average	-10.8981
ाद	-10.8985
IT	-10.8987
▁जगभरातील	-10.8988
▁अॅप	-10.8988
▁achieved	-10.8988
▁wall	-10.899
णारी	-10.8991
▁saved	-10.8993
▁चकमकीत	-10.8993
▁Russian	-10.8993
▁लागतील	-10.8996
▁साकार	-10.8997
▁कैद	-10.8999
स्तरीय	-10.9
▁Has	-10.9002
▁येण्याची	-10.9002
▁user	-10.9003
▁परिषदेच्या	-10.9007
थे	-10.9007
्याचा	-10.9009
▁फेक	-10.901
▁बाजूने	-10.9011
▁नाना	-10.9015
फा	-10.902
▁जु	-10.902
ड्र	-10.9022
▁बेट	-10.9025
▁पाण्यात	-10.9027
ko	-10.9035
we	-10.9038
▁commission	-10.9039
over	-10.904
▁कंपनीने	-10.9042
ess	-10.9054
bal	-10.9056
▁स्त्रियां	-10.9063
हर	-10.9071
ाजवळ	-10.9071
▁exact	-10.9071
▁प्रकारचा	-10.9075
▁super	-10.9076
▁enable	-10.9076
▁सहाय्य	-10.9077
▁demise	-10.9078
▁eventually	-10.9078
▁industrial	-10.9078
▁mouth	-10.9078
▁storm	-10.9078
▁प्रादेशिक	-10.9078
▁महापालिका	-10.9078
▁मागितली	-10.9078
▁शालेय	-10.9078
▁समन्वय	-10.9078
▁taught	-10.9078
▁digital	-10.9078
▁flag	-10.9078
▁हॉकी	-10.9078
▁तुझा	-10.9079
▁indeed	-10.9079
▁2012	-10.9079
▁बघत	-10.908
▁2010	-10.908
▁Wi	-10.9081
▁सुदैवाने	-10.9081
▁हस्त	-10.9081
▁sheep	-10.9082
▁लीग	-10.9083
▁रोखण्यासाठी	-10.9083
▁observed	-10.9084
▁बंदर	-10.9085
▁दाखवली	-10.9086
▁Action	-10.9086
▁stake	-10.9087
▁वास्तव	-10.9088
▁male	-10.9088
isation	-10.9088
प्रमाणेच	-10.9089
▁locals	-10.909
▁शास्त्री	-10.909
▁नोटा	-10.9091
Shiv	-10.9093
▁guard	-10.9093
▁इंडियाच्या	-10.9096
▁agreement	-10.9097
▁टाळ	-10.9097
▁limited	-10.9098
▁tender	-10.9099
▁सो	-10.9099
▁व्हा	-10.9099
८	-10.9099
▁आजपर्यंत	-10.91
▁design	-10.9106
▁ठेवण्यासाठी	-10.9108
झर	-10.9109
▁teacher	-10.9109
▁प्रेमळ	-10.911
▁गुन्ह्या	-10.9111
▁भाजपकडून	-10.9112
▁अंक	-10.9112
ell	-10.9115
"",	-10.9118
▁songs	-10.9121
▁heat	-10.9122
▁खेळत	-10.9123
▁कोठडी	-10.9124
▁भू	-10.913
▁begins	-10.9138
▁कोठडीत	-10.914
▁मंत्रिमंडळ	-10.914
▁बल	-10.9142
▁विचारला	-10.9147
▁मस्त	-10.9153
▁caste	-10.9156
शांत	-10.9158
▁कार्यात	-10.9158
▁helping	-10.9165
ries	-10.9166
▁fill	-10.9169
▁मिळव	-10.917
्न	-10.9172
▁ठराव	-10.9173
▁JD	-10.9177
wan	-10.9177
▁millions	-10.9179
▁Ramesh	-10.9181
▁नात्या	-10.9182
▁कोर्टा	-10.9184
▁पडू	-10.9184
▁फ्ल	-10.9184
▁इत्यादी	-10.9186
▁abroad	-10.9186
▁identify	-10.9186
▁आक्रमक	-10.9186
▁दशलक्ष	-10.9186
▁स्तुती	-10.9186
▁सलामीवीर	-10.9186
▁Mukesh	-10.9186
▁Rafale	-10.9186
▁flesh	-10.9186
▁Sushma	-10.9186
▁उपयुक्त	-10.9186
▁Airport	-10.9186
▁पाहणी	-10.9187
▁पाठविण्या	-10.9187
▁महत्वपूर्ण	-10.9187
▁वर्षांपूर्वी	-10.9187
▁वर्मा	-10.9188
▁panic	-10.9188
▁जेथे	-10.9189
▁kindness	-10.919
▁पोस्टर	-10.919
▁protesters	-10.9192
▁investigations	-10.9192
ुद्दीन	-10.9195
▁finished	-10.9195
▁समजते	-10.9205
▁lawyer	-10.9205
टक	-10.9207
▁polling	-10.9212
▁honoured	-10.9215
▁सभागृहात	-10.9215
▁पाह	-10.9217
▁सुलभ	-10.9218
▁systems	-10.922
▁Amendment	-10.9222
▁contain	-10.9222
▁discipline	-10.9225
▁उड	-10.9232
rao	-10.9243
▁स्	-10.925
▁49	-10.9254
▁requires	-10.9258
▁aim	-10.9265
ler	-10.9268
▁diet	-10.927
▁शेतक	-10.9273
क्‍	-10.9273
▁पातळी	-10.9274
▁विभागाच्या	-10.9275
tro	-10.9279
▁भास	-10.928
▁wins	-10.9283
▁encourage	-10.9285
▁Nehru	-10.9294
▁Subsequently	-10.9294
▁श्रद्धांजली	-10.9294
▁विखे	-10.9294
▁उपग्रह	-10.9295
▁hair	-10.9295
▁खुलासा	-10.9295
▁Media	-10.9295
▁mine	-10.9298
▁filmmaker	-10.9298
her	-10.9298
▁seeing	-10.9298
▁Mon	-10.9299
▁Though	-10.9299
▁Indira	-10.93
वर्ग	-10.93
▁gathered	-10.9301
▁सहाय्यक	-10.9301
म्प	-10.9302
▁चालली	-10.9303
▁constructed	-10.9303
▁Hu	-10.9304
▁patient	-10.9308
▁आजवर	-10.9313
▁दाखवून	-10.9313
▁दाखवले	-10.9313
तेच्या	-10.9314
▁scene	-10.9315
▁window	-10.9315
▁महत्वाचा	-10.9316
▁organization	-10.9316
▁बांधण्या	-10.932
▁बळकट	-10.9321
▁setting	-10.9322
▁54	-10.9322
बल	-10.9326
▁जयंती	-10.9327
▁creat	-10.9331
▁भेटीला	-10.9331
▁अर्थाने	-10.9331
▁युरोप	-10.9335
लेट	-10.9335
▁minutes	-10.9337
ग्	-10.9338
▁पॅन	-10.9342
▁परिणामी	-10.9348
ees	-10.9349
▁Ti	-10.935
ov	-10.9355
▁actions	-10.9357
▁size	-10.9363
ava	-10.9368
्वा	-10.9369
▁concerns	-10.9375
▁मीठ	-10.9381
▁गायक	-10.9382
▁ties	-10.9385
▁views	-10.9388
▁त्याकडे	-10.9389
▁mention	-10.9391
▁ability	-10.9391
▁देशाचा	-10.9393
▁ओम	-10.9393
▁ठोक	-10.94
▁त्याप्रमाणे	-10.9401
▁prison	-10.9402
▁आकडेवारी	-10.9404
▁परंपरा	-10.9404
▁Agarwal	-10.9404
▁brigade	-10.9404
▁challenging	-10.9404
▁फसवणूक	-10.9404
▁तत्काळ	-10.9404
▁निर्बंध	-10.9404
▁फुटेज	-10.9404
▁व्यस्त	-10.9405
▁कदम	-10.9405
▁travelling	-10.9406
▁खराब	-10.9409
▁Similarly	-10.9409
▁privilege	-10.941
▁मानतो	-10.9412
▁अधिकाऱ्यांना	-10.9412
▁व्हि	-10.9413
ूक	-10.9419
▁टा	-10.942
प्रमुख	-10.9421
▁Bi	-10.9421
“	-10.9422
▁कुठला	-10.9423
तेचा	-10.9425
लाही	-10.9429
▁payment	-10.9429
▁fan	-10.943
oli	-10.9433
▁स्क	-10.9436
MA	-10.9439
▁संपर्कात	-10.9441
▁Love	-10.9448
▁poster	-10.9454
▁interested	-10.9459
▁विधानसभेत	-10.9461
gen	-10.9465
▁2000	-10.9468
wi	-10.947
▁blessings	-10.9473
▁६०	-10.9474
▁Pan	-10.9475
▁दिल्लीचे	-10.9481
प्प	-10.9482
▁जळ	-10.9485
▁पैशा	-10.9488
▁applications	-10.949
व्हा	-10.9493
▁माय	-10.9498
▁सगळ्यात	-10.9499
वन	-10.95
▁प्रकाशन	-10.9504
स्ट्र	-10.9507
mm	-10.9508
▁नावाची	-10.9508
ारी	-10.9508
▁Egypt	-10.951
▁righteous	-10.9514
▁danger	-10.9515
▁स्मरण	-10.9515
▁Conference	-10.9515
▁Management	-10.9515
▁Solomon	-10.9515
▁Traffic	-10.9515
▁गुणवत्ता	-10.9515
▁भरवसा	-10.9515
▁सरचिटणीस	-10.9515
▁Mantri	-10.9515
▁bomb	-10.9515
▁इब्री	-10.9515
▁श्रीदेवी	-10.9516
▁arise	-10.9516
▁सिद्धार्थ	-10.9516
▁राहणाऱ्या	-10.9516
▁authority	-10.9516
▁batting	-10.9516
▁पार्क	-10.9517
▁द्वारे	-10.9517
▁मेहता	-10.9518
भोवती	-10.9519
▁प्रसारण	-10.9519
ank	-10.952
▁Mark	-10.9521
▁साकारली	-10.9521
▁परमेश्वरा	-10.9522
▁ग्राहकांना	-10.9524
put	-10.9525
▁ईयोब	-10.9525
▁नसतात	-10.9526
ini	-10.9529
▁centres	-10.9529
oo	-10.953
rt	-10.953
▁appropriate	-10.9532
▁""""	-10.9533
▁सर्वजण	-10.9535
चालक	-10.9535
जि	-10.9536
match	-10.9537
▁देशभरातील	-10.9537
▁instance	-10.9538
▁servant	-10.9539
▁Kul	-10.954
▁दलित	-10.9543
्याची	-10.9546
▁मैदानावर	-10.9548
▁Tri	-10.9549
▁ताण	-10.9551
▁जमावा	-10.9552
▁Kal	-10.9556
ंकडे	-10.9556
▁सांगतात	-10.956
▁भरती	-10.9561
▁स्थितीत	-10.9562
▁इन्	-10.957
▁हिने	-10.9571
▁पोलिसांची	-10.9571
▁मुद्द्यावर	-10.9574
▁aid	-10.958
▁जिल्ह्या	-10.9581
18	-10.9586
▁गुजरातमध्ये	-10.9592
▁tradition	-10.9595
▁Hindus	-10.9602
▁डोंगर	-10.9602
चर	-10.9604
dra	-10.9608
▁तेलंगणा	-10.9614
▁समजले	-10.9616
ero	-10.9617
ाबाहेर	-10.9618
तोय	-10.9619
▁escape	-10.9619
▁remove	-10.9619
▁original	-10.9622
▁मदती	-10.9625
▁निवेदन	-10.9627
▁straight	-10.9628
▁Vidarbha	-10.9628
▁manufacturing	-10.9628
▁आत्मविश्वास	-10.9628
▁मोबाइल	-10.9628
▁विश्रांती	-10.9628
▁York	-10.9628
▁participation	-10.9628
▁आठवडय	-10.9628
▁Joint	-10.9628
▁बहीण	-10.9628
▁पाहिला	-10.9628
▁Mehta	-10.9628
▁Still	-10.9628
▁mankind	-10.9628
▁सुट्टी	-10.9628
▁Srinagar	-10.9629
▁चोख	-10.963
▁गणेश	-10.963
▁SC	-10.9631
ST	-10.9632
▁degrees	-10.9633
बद्ध	-10.9634
▁determined	-10.9634
▁block	-10.9634
▁जरी	-10.9635
▁resolved	-10.9638
क्रम	-10.9639
▁भारताकडून	-10.964
दृष्ट्या	-10.9641
▁headquarters	-10.9642
▁la	-10.9644
▁वेळेत	-10.9645
▁नात्याने	-10.9645
▁व्यक्तीला	-10.9647
▁बनला	-10.9647
▁हॅ	-10.965
▁टेक	-10.9652
▁base	-10.9653
▁एखादी	-10.9653
▁सलामी	-10.9662
▁विद्या	-10.9665
धि	-10.9666
▁चीनच्या	-10.9666
▁जागे	-10.9667
▁शेजारी	-10.9668
▁decades	-10.9669
▁मुक	-10.9669
▁रस्त्या	-10.967
▁marks	-10.9675
▁प्राण्यां	-10.9675
ांबरोबर	-10.9677
ोप	-10.9678
▁interests	-10.9679
▁eating	-10.9691
▁दया	-10.9694
▁सोड	-10.9698
▁perform	-10.9701
▁पदावर	-10.9712
▁काळातील	-10.972
▁अभ्यासक्रम	-10.972
प्ल	-10.9723
रूप	-10.9725
▁यावी	-10.9725
संबंधी	-10.9731
▁38	-10.9732
▁prepare	-10.9733
▁Arunachal	-10.9741
▁Jadeja	-10.9741
▁easily	-10.9741
▁symbol	-10.9741
▁नाणेफेक	-10.9741
▁खबरदारी	-10.9741
▁green	-10.9742
▁Sridevi	-10.9742
▁vital	-10.9742
▁moral	-10.9742
▁बाबासाहेब	-10.9742
▁टप्पा	-10.9742
▁association	-10.9742
▁appearance	-10.9742
▁सिंगापूर	-10.9743
▁राहणे	-10.9743
▁2011	-10.9743
▁captured	-10.9745
▁constantly	-10.9745
▁अन्याय	-10.9746
▁Wa	-10.9747
▁बर	-10.9747
▁श्रेणी	-10.9751
▁दुर्घटनेत	-10.9754
▁पडलेल्या	-10.9756
▁46	-10.9758
युक्त	-10.9758
▁picked	-10.9762
▁lakhs	-10.9764
▁complaints	-10.9765
▁Were	-10.9767
▁लागण	-10.9769
्याच	-10.9771
▁Use	-10.9772
▁करीन	-10.9772
ल्यामुळे	-10.9776
▁देशांनी	-10.9788
▁Ri	-10.9789
▁राणी	-10.979
▁Rama	-10.9791
▁Sar	-10.9793
▁सवय	-10.9803
▁vi	-10.9805
ारा	-10.9812
▁जिंकल्या	-10.9813
कालीन	-10.9814
▁Om	-10.9816
▁youths	-10.9818
▁अडचण	-10.9825
▁लोकसभे	-10.9826
तेने	-10.9826
भा	-10.983
▁तोच	-10.9835
▁murdered	-10.9835
ina	-10.9838
▁register	-10.9839
▁सभेत	-10.9839
umb	-10.9849
uk	-10.9851
▁स्ट्र	-10.9855
▁Industry	-10.9856
▁Vajpayee	-10.9856
▁advice	-10.9856
▁visible	-10.9856
▁ठळक	-10.9856
▁बाप्तिस्मा	-10.9856
▁शरीफ	-10.9856
▁होईपर्यंत	-10.9856
▁आवृत्ती	-10.9856
▁पिढी	-10.9856
▁Kannada	-10.9856
▁नुकतेच	-10.9856
▁Services	-10.9856
▁priority	-10.9857
▁Kaif	-10.9857
▁चहा	-10.9857
▁भाषे	-10.9859
▁मह	-10.986
▁harm	-10.9862
▁नेण्यात	-10.9862
▁लिमिटेड	-10.9862
▁श्रीलंका	-10.9862
ill	-10.9863
▁appreciated	-10.9863
▁धैर्य	-10.9863
▁initiatives	-10.9864
▁सौदी	-10.9866
▁losses	-10.9866
▁टेनिस	-10.987
CA	-10.987
▁सन्मानित	-10.987
▁सारे	-10.9875
▁वाटचाल	-10.9876
▁challenged	-10.9876
▁प्रसंगी	-10.9877
▁Mohammad	-10.9878
▁जाण्यासाठी	-10.9878
What	-10.988
▁साकारणार	-10.9882
▁task	-10.9883
▁skill	-10.9884
डि	-10.9888
▁customers	-10.9889
▁bar	-10.9891
▁(1	-10.9891
▁देवी	-10.9891
▁आयोग	-10.9892
▁डो	-10.9896
▁regional	-10.9901
▁दारू	-10.9903
lan	-10.9903
▁Atal	-10.9905
▁आपणही	-10.9906
▁देशा	-10.9908
▁celebrations	-10.9908
▁सांगते	-10.991
▁Metro	-10.991
▁दिसले	-10.9912
▁वळण	-10.9916
▁ठरू	-10.9916
ातल्या	-10.9918
ाविरोधात	-10.9918
▁जमिनीवर	-10.992
▁खाल	-10.992
▁कार्यालयात	-10.9921
ांतून	-10.993
▁programmes	-10.993
▁कसोटीत	-10.9931
कारक	-10.9933
urav	-10.9934
▁केंद्रात	-10.9937
▁बळ	-10.9939
▁teach	-10.994
▁मूल	-10.9943
डर	-10.9944
den	-10.9944
▁medals	-10.9945
▁प्रत्येकाला	-10.9948
▁टो	-10.9959
▁टाळा	-10.9961
यर	-10.9961
सि	-10.9961
▁3,	-10.9963
नीय	-10.9964
▁त्रुटी	-10.9973
▁Bharti	-10.9973
▁Brazil	-10.9973
▁Bumrah	-10.9973
▁Which	-10.9973
▁biopic	-10.9973
▁गौतम	-10.9973
▁Cooperation	-10.9973
▁अपहरण	-10.9973
▁यावर्षी	-10.9973
▁Local	-10.9973
▁मॉडेल	-10.9973
▁Roshan	-10.9973
▁Foundation	-10.9973
▁Woman	-10.9973
▁warned	-10.9974
▁नोंदवला	-10.9974
▁definitely	-10.9974
▁inspired	-10.9975
दल	-10.9975
▁बऱ्‍याच	-10.9976
▁collection	-10.9976
▁Sandeep	-10.9977
▁पोलिसांत	-10.9977
ुद्द	-10.9979
▁ठेवणे	-10.998
▁तत्त्व	-10.9984
▁goods	-10.9985
▁मंत्रिमंडळाने	-10.9986
▁rescued	-10.9987
शु	-10.9995
▁माध्यमां	-10.9996
▁delivered	-10.9998
▁items	-10.9998
▁थंड	-11
▁noted	-11
▁gift	-11.0001
▁guest	-11.0001
▁animal	-11.0002
ाबरोबर	-11.0002
▁En	-11.0003
▁professional	-11.0005
ue	-11.0006
▁सांभाळ	-11.0007
▁जागेवर	-11.0009
ुम	-11.0011
▁developing	-11.0013
▁दान	-11.0015
▁shares	-11.0015
▁सारख्या	-11.0017
▁stayed	-11.0018
▁कपात	-11.0019
कार्य	-11.0021
▁स्थापने	-11.0022
▁सत्तेत	-11.0028
▁काप	-11.0028
form	-11.0029
▁51	-11.0029
▁अनेकांना	-11.003
▁Te	-11.0034
दैव	-11.0037
▁प्रमाणे	-11.0037
▁Pra	-11.004
▁ho	-11.004
▁manager	-11.0041
▁हमी	-11.0041
▁household	-11.0041
िप	-11.0047
▁shal	-11.0048
▁निवृत्त	-11.005
▁fielded	-11.005
▁पहिल्याच	-11.0054
ट्र	-11.0064
वेळा	-11.0068
ments	-11.0069
▁वेगवेगळ	-11.0071
▁Awards	-11.0071
▁extend	-11.0073
▁Sho	-11.0073
▁सर्वेक्षण	-11.0074
▁अर्थातच	-11.0074
▁schedule	-11.0082
▁annual	-11.0083
▁floods	-11.0084
▁प्रधानमंत्र	-11.0085
▁स्थानी	-11.0086
▁fathers	-11.0086
▁कॉल	-11.009
▁transfer	-11.009
▁Chhatrapa	-11.009
▁Nashik	-11.009
▁climate	-11.009
▁pivot	-11.009
▁revenue	-11.009
▁Sometimes	-11.009
▁transferred	-11.009
▁Set	-11.0091
▁सेवन	-11.0091
▁म्हणू	-11.0091
▁आत्तापर्यंत	-11.0091
▁righteousness	-11.0091
▁worldwide	-11.0092
▁खोट्या	-11.0093
▁Hall	-11.0094
▁Adam	-11.0095
▁trend	-11.0097
▁जोडणी	-11.0098
dhar	-11.0098
▁एकमेकांना	-11.0099
▁सीतारामन	-11.01
▁buses	-11.0101
▁version	-11.0102
▁emotional	-11.0104
▁ग्रंथ	-11.0104
▁JNU	-11.0104
▁125	-11.0104
▁sixth	-11.0106
▁कमाल	-11.0106
▁मंत्रिमंडळाची	-11.0109
▁आमच्याकडे	-11.011
af	-11.0113
▁AAP	-11.0116
मिन	-11.0117
back	-11.0117
▁learnt	-11.0119
▁vaccine	-11.012
▁location	-11.012
▁fit	-11.0122
▁ज्यांनी	-11.0124
▁जास्तीत	-11.0125
▁appealed	-11.0126
▁पाण्याचा	-11.0128
▁प्रधान	-11.0131
▁मोज	-11.0133
▁झाल्यास	-11.0139
ंचं	-11.0142
▁महिलेला	-11.0145
▁mountain	-11.0146
▁files	-11.0148
ांग	-11.0148
▁पक्षाला	-11.0152
▁पुस्तके	-11.0156
▁पावसाची	-11.0163
▁यावे	-11.0174
बो	-11.0176
▁सैतान	-11.0177
्ती	-11.0177
pat	-11.0182
्याला	-11.0183
िनी	-11.0189
▁implement	-11.019
▁गाय	-11.0197
र्ग	-11.0198
▁tr	-11.02
सम	-11.0202
निमित्त	-11.0204
ालय	-11.0204
▁भय	-11.0204
▁शेतकर्‍यां	-11.0205
▁secret	-11.0209
egislative	-11.0209
▁Common	-11.0209
▁grief	-11.0209
▁अनुराग	-11.0209
▁ठाऊक	-11.0209
▁voting	-11.0209
▁अचूक	-11.0209
▁रक्‍त	-11.0209
▁calm	-11.0209
▁Balasaheb	-11.0209
▁scared	-11.0209
▁२०१४	-11.0209
▁Saudi	-11.021
▁Sardar	-11.021
▁failure	-11.021
▁alive	-11.021
▁बचत	-11.021
▁गुगल	-11.021
▁क्षमा	-11.021
▁wave	-11.021
▁warning	-11.0211
▁गांभीर्याने	-11.0211
▁treat	-11.0212
▁विशेषतः	-11.0212
▁offence	-11.0213
▁व्यापक	-11.0213
▁possession	-11.0213
▁prophet	-11.0214
▁Sharif	-11.0214
▁Lucknow	-11.0214
▁250	-11.0215
▁quickly	-11.0215
▁onion	-11.0216
13	-11.0217
▁पालकांनी	-11.0217
दायक	-11.0219
▁respective	-11.0219
ability	-11.0221
▁fulfilled	-11.0221
▁सैन्या	-11.0221
▁suspect	-11.0223
▁appears	-11.0223
▁improved	-11.0228
ral	-11.0232
▁commanded	-11.0234
▁younger	-11.0235
▁fruit	-11.0235
▁समजत	-11.0236
पाकिस्तान	-11.0236
▁बसत	-11.0237
▁urban	-11.0238
▁soil	-11.0239
▁सुर	-11.0245
▁आलंय	-11.0247
ged	-11.025
▁43	-11.0251
▁ruled	-11.0251
▁याचिकेवर	-11.0252
▁union	-11.0253
▁Shami	-11.0253
▁activists	-11.0259
▁मना	-11.026
▁प्रांत	-11.0263
▁winners	-11.0264
▁Kh	-11.0271
▁पिता	-11.0271
▁गड	-11.0276
▁अद्	-11.0277
star	-11.0278
▁देणारा	-11.0278
▁महाराष्ट्राच्या	-11.0278
्याने	-11.0278
▁आईला	-11.0281
▁चालका	-11.0286
▁standards	-11.0287
▁peoples	-11.0287
act	-11.0288
▁वाच	-11.0297
लोक	-11.0301
ey	-11.0308
qui	-11.0312
▁गांगुली	-11.0313
ology	-11.0314
▁गोष्टीं	-11.0319
▁बनवले	-11.032
▁types	-11.0322
▁park	-11.0328
▁Policy	-11.033
▁applied	-11.033
▁bread	-11.033
▁bronze	-11.033
▁covenant	-11.033
▁guidelines	-11.033
▁अभिषिक्‍त	-11.033
▁निमंत्रण	-11.033
▁ब्रिटिश	-11.033
▁शेकडो	-11.033
▁हरयाणा	-11.033
▁हवं	-11.033
▁harassment	-11.033
▁गुलाम	-11.033
▁Kalyan	-11.033
▁awareness	-11.0331
▁shortage	-11.0332
▁कच्च	-11.0332
▁Gu	-11.0334
▁रहा	-11.0339
▁बघ	-11.0341
▁चित्रपटातून	-11.0342
▁expression	-11.0342
▁मोहिमे	-11.0343
▁Vot	-11.0343
▁successfully	-11.0351
▁मारण्या	-11.0351
▁older	-11.0352
▁समस्ये	-11.0352
▁कर्नाटकात	-11.0353
▁महिलांच्या	-11.0355
▁पोहोचला	-11.0357
फ्र	-11.0358
▁सैताना	-11.0364
▁journalist	-11.0366
▁जायचे	-11.0367
▁केल्याची	-11.0369
▁वंशा	-11.037
स्व	-11.0371
▁बु	-11.0372
▁educational	-11.0372
CC	-11.0372
pro	-11.0375
▁कॉ	-11.0376
▁east	-11.038
ेचा	-11.0381
▁बंगालमध्ये	-11.0381
ative	-11.0382
▁medicines	-11.0383
▁traditional	-11.0391
▁म्ह	-11.0392
▁watching	-11.0395
▁बिग	-11.0397
स्प	-11.0397
धार	-11.04
ites	-11.0402
mu	-11.0403
▁falls	-11.0405
▁पसंती	-11.0407
▁interesting	-11.0411
▁त्यांच्यात	-11.0412
▁बदलले	-11.0413
▁चव	-11.0416
▁चेंडू	-11.0417
▁सेने	-11.0417
कारी	-11.0418
▁असूनही	-11.0424
सेवा	-11.0429
▁नस	-11.0429
▁कृत्य	-11.0431
▁शिकव	-11.0431
ंध	-11.0434
्ज	-11.0436
ासोबत	-11.0439
▁Vir	-11.0439
▁वैशिष्ट्य	-11.044
▁समुदाया	-11.0441
▁आल्याने	-11.0442
▁वाचव	-11.0446
▁branch	-11.0449
▁labour	-11.045
▁Thousand	-11.0452
▁Vikhe	-11.0452
▁complex	-11.0452
▁knock	-11.0452
▁stretch	-11.0452
▁कबुली	-11.0452
▁कौटुंबिक	-11.0452
▁तितके	-11.0452
▁बलिदान	-11.0452
▁महासंचालक	-11.0452
▁व्यवस्थित	-11.0452
▁शपथविधी	-11.0452
▁Limited	-11.0452
▁पालिके	-11.0452
▁Parents	-11.0452
▁emergency	-11.0452
▁Internet	-11.0452
▁बेपत्ता	-11.0452
▁dropped	-11.0452
▁शूटिंग	-11.0452
▁Boss	-11.0453
▁appointment	-11.0453
▁आग्रह	-11.0454
▁Ltd	-11.0455
▁पसरली	-11.0455
▁anybody	-11.0457
▁disrupted	-11.0457
▁निवडा	-11.0458
द्ध	-11.0458
▁Avoid	-11.046
▁Once	-11.0462
▁style	-11.0466
▁earned	-11.0468
▁flee	-11.0469
▁लवकरात	-11.0474
▁बारा	-11.0475
▁NRC	-11.0477
▁लाव	-11.0478
▁मंडळा	-11.048
पात	-11.048
▁conversation	-11.0486
▁mistake	-11.0486
▁Soon	-11.0489
▁मोदींवर	-11.0492
▁Royal	-11.0493
▁सार	-11.0494
▁पोलिसांचा	-11.0495
विन	-11.0495
▁वाढल्या	-11.0497
▁चित्रपटाला	-11.0498
▁पाहतो	-11.05
▁wealth	-11.0506
▁searching	-11.0518
▁हाल	-11.0518
▁arrangements	-11.052
ावरुन	-11.0526
▁रिया	-11.0527
▁fail	-11.0535
▁मिळवण्या	-11.0536
▁स्प	-11.0537
▁kg	-11.0544
II	-11.0552
▁Elections	-11.056
▁कॅ	-11.0568
▁घोष	-11.0568
▁peaceful	-11.057
kumar	-11.0575
▁submit	-11.0575
▁Region	-11.0575
▁Shastri	-11.0575
▁delegation	-11.0575
▁disaster	-11.0575
▁भरपाई	-11.0575
▁रिलायन्स	-11.0575
▁Gautam	-11.0575
▁blue	-11.0575
iyush	-11.0575
▁Actress	-11.0575
▁taste	-11.0575
▁sword	-11.0575
▁ऑस्ट्रेलियाचा	-11.0575
▁रोशन	-11.0576
▁Great	-11.0576
▁कारभार	-11.0576
▁Like	-11.0576
▁पायलट	-11.0576
▁friendship	-11.0576
▁मोठं	-11.0576
▁अपमान	-11.0577
▁कुठेही	-11.0578
▁selection	-11.0578
▁2008	-11.0578
▁Joseph	-11.0579
▁सौर	-11.058
▁threatened	-11.058
▁rank	-11.0581
राष्ट्रवादी	-11.0584
▁rivers	-11.0588
षी	-11.059
▁shocked	-11.0593
▁suspected	-11.0594
▁सूर्य	-11.0594
प्पा	-11.0597
Dilip	-11.0598
▁पंत	-11.0599
▁उभार	-11.0599
▁forced	-11.0602
abad	-11.0606
▁channel	-11.0611
▁Pay	-11.0615
▁meaning	-11.0618
▁rankings	-11.062
द्य	-11.0621
▁नेले	-11.0625
ंबर	-11.0626
▁falling	-11.063
धी	-11.0632
▁contested	-11.0637
▁Championships	-11.0647
▁वडिलां	-11.0651
शक्ती	-11.0654
जनक	-11.0656
▁shock	-11.0658
▁यापुढे	-11.0661
वाडी	-11.0663
ept	-11.0665
▁fruits	-11.0667
ably	-11.0667
▁नाराज	-11.0669
16	-11.0673
▁sun	-11.0674
uff	-11.0675
▁स्त्रिया	-11.0677
लिया	-11.0679
▁पेट	-11.068
▁crash	-11.068
▁मांडण्या	-11.0681
▁नृत्य	-11.0681
▁वृत्ती	-11.0681
गु	-11.0686
▁दुर्घटने	-11.0687
▁k	-11.0688
▁शेत	-11.0695
▁तालुक्यात	-11.0697
▁o	-11.0699
▁धडा	-11.07
▁Anurag	-11.07
▁possibility	-11.07
▁powder	-11.07
▁अरुणाचल	-11.07
▁Panchayat	-11.07
▁leaving	-11.07
▁impossible	-11.07
▁Project	-11.07
▁Authority	-11.07
▁नुकतीच	-11.07
▁River	-11.0701
▁Ranaut	-11.0701
▁Munde	-11.0701
▁novel	-11.0701
▁चेहरा	-11.0701
▁Greek	-11.0701
▁लोकसंख्ये	-11.0701
▁सगळी	-11.0701
▁देवगण	-11.0701
▁आंतर	-11.0701
ाऱ्या	-11.0701
▁करण्याबाबत	-11.0702
मधे	-11.0703
▁मत्तय	-11.0703
▁शाश्वत	-11.0707
▁सगळ्यांना	-11.071
▁पीडिते	-11.071
▁mode	-11.0712
▁Give	-11.0712
▁संध्याकाळी	-11.0713
ons	-11.0715
फर	-11.0718
▁ईडी	-11.0721
▁47	-11.0723
▁चिन्ह	-11.0723
र्क	-11.0724
▁Mahesh	-11.0726
▁साधारण	-11.0726
छ	-11.0727
▁covered	-11.0729
▁scientists	-11.0729
▁करण्यावर	-11.073
▁सांगून	-11.073
मुंबई	-11.0733
▁womens	-11.0735
But	-11.0738
▁experienced	-11.074
टो	-11.0742
▁घाल	-11.0742
▁बांधले	-11.0743
▁App	-11.0745
▁maintained	-11.0747
▁राबव	-11.0754
▁मिळालेला	-11.0755
▁beside	-11.0763
▁प्रत	-11.0766
कट	-11.0769
▁Art	-11.0772
▁भारती	-11.0773
▁इन्स्टाग्रामवर	-11.0773
▁calling	-11.0778
▁राहात	-11.0782
▁जड	-11.0783
▁सेवेत	-11.0785
▁अशाच	-11.0789
ER	-11.0796
▁होणारे	-11.08
▁Governments	-11.0801
▁सनी	-11.0802
▁brief	-11.0802
▁1.5	-11.0806
tter	-11.0807
ाक	-11.0808
▁न्या	-11.0809
▁कृष्णा	-11.0811
▁Ganga	-11.0818
▁surprise	-11.0818
▁पुरवण्या	-11.0819
▁संविधान	-11.0819
त्री	-11.0826
▁bond	-11.0826
▁Trophy	-11.0827
▁equipment	-11.0827
▁जावडेकर	-11.0827
▁पश्चात	-11.0827
▁तिथं	-11.0827
▁राधाकृष्ण	-11.0827
▁सायंकाळ	-11.0827
▁नातेसंबंध	-11.0827
▁context	-11.0827
▁आसपास	-11.0827
▁Bhushan	-11.0827
▁Eknath	-11.0827
कोण	-11.0827
▁परिपूर्ण	-11.0828
ीव	-11.0828
▁खऱ्‍या	-11.0828
▁स्वस्त	-11.0828
▁labourers	-11.0829
▁भाषांमध्ये	-11.0831
▁behalf	-11.0832
▁मौल	-11.0832
▁grown	-11.0832
▁burnt	-11.0833
▁राहण्यास	-11.0833
▁बाधित	-11.0835
▁त्यामुळं	-11.0835
▁जितक	-11.0836
▁greatest	-11.0837
▁किरण	-11.0837
▁seventh	-11.084
▁वेगळ्या	-11.084
▁विदेशी	-11.0842
▁Change	-11.0842
▁वैशिष्ट्ये	-11.0842
80	-11.0843
▁दोघांचा	-11.0847
▁मुलीला	-11.0849
मल	-11.085
▁शक्‍ती	-11.085
▁आपल्यावर	-11.0851
यात	-11.0853
You	-11.0854
▁6:	-11.0854
▁मुलाखतीत	-11.0855
kg	-11.0859
member	-11.0859
▁अध्यक्षपदी	-11.0862
▁यांच्याविरोधात	-11.0863
▁जगाला	-11.0864
▁advocate	-11.0864
▁stock	-11.0866
▁device	-11.0866
▁सत्ते	-11.0872
▁भो	-11.0873
▁passing	-11.0873
▁fair	-11.0877
▁नाम	-11.0877
og	-11.088
tru	-11.0886
▁लेखात	-11.0886
▁promot	-11.0887
pp	-11.0888
वाय	-11.0892
▁जोडले	-11.0899
▁5:	-11.0899
वू	-11.0903
▁स्वर्गात	-11.0907
ore	-11.0913
▁historic	-11.0913
dev	-11.0914
र्थ	-11.0922
jit	-11.0925
▁News	-11.0926
▁ship	-11.0927
काम	-11.093
▁सब	-11.0933
ular	-11.0935
▁priests	-11.0937
▁कोल	-11.094
uring	-11.0941
ंसोबत	-11.0942
्टर	-11.0942
▁मैदानात	-11.0942
▁illegal	-11.0947
तल्या	-11.0953
▁माती	-11.0954
▁बंगळुरू	-11.0955
▁सांत्वन	-11.0955
▁Prabhu	-11.0955
▁Trust	-11.0955
▁agricultural	-11.0955
▁कुलकर्णी	-11.0955
▁चषक	-11.0955
▁डेव्हिड	-11.0955
▁प्रतिनिधित्	-11.0955
▁प्राध्यापक	-11.0955
▁वर्चस्व	-11.0955
▁ठप्प	-11.0955
▁wake	-11.0955
▁मधुमेह	-11.0955
▁Radhakrishna	-11.0955
▁fundamental	-11.0955
▁communities	-11.0955
▁numerous	-11.0955
▁dialogue	-11.0955
▁सायबर	-11.0955
▁defend	-11.0955
▁Reliance	-11.0955
▁देसाई	-11.0955
▁पदाधिकारी	-11.0955
▁grew	-11.0955
▁leg	-11.0956
▁mid	-11.0956
▁worst	-11.0956
▁गाणी	-11.0957
▁गाणे	-11.0959
▁overall	-11.0959
▁संरक्षणमंत्री	-11.0959
▁upset	-11.0961
▁दुर्घटना	-11.0962
▁वेळापत्रक	-11.0963
▁सांगितली	-11.0963
▁installed	-11.0963
▁cup	-11.0964
▁होणारा	-11.0967
▁निर्धार	-11.0969
▁स्पष्टपणे	-11.097
▁fighter	-11.097
▁troops	-11.0971
▁लढतीत	-11.0972
▁अन्	-11.0975
lin	-11.0975
▁पूर	-11.0975
▁मिश्रण	-11.0977
▁जवानांनी	-11.0978
▁भागांमध्ये	-11.0978
▁faces	-11.0984
▁गोड	-11.0987
विली	-11.0987
▁बाग	-11.0989
▁गावातील	-11.099
▁शमी	-11.0993
▁जणू	-11.0994
▁शिवसेनेने	-11.0994
▁लोकसभेच्या	-11.0994
▁मजा	-11.0996
▁sale	-11.0996
work	-11.0999
▁पडतो	-11.0999
▁CAA	-11.1005
▁कुटुंबीय	-11.1007
DC	-11.1007
▁उदाहरणे	-11.1009
▁वास	-11.1016
ंगा	-11.1019
▁mis	-11.1019
int	-11.1019
ध्य	-11.1022
▁भांडण	-11.1022
▁प्रवृत्त	-11.1024
cr	-11.1031
▁worse	-11.1032
▁मनुष्या	-11.1035
▁phones	-11.1037
▁स्वतःची	-11.1039
gal	-11.1042
▁एकता	-11.105
▁भाज्या	-11.1056
▁मुलां	-11.1057
▁वाहनां	-11.1057
▁बन	-11.1058
▁लोकल	-11.1058
▁भाविक	-11.1059
▁Environment	-11.1061
ेज	-11.1066
मुक्त	-11.1067
पट्टी	-11.107
▁sex	-11.1075
▁दुख	-11.1075
▁permanent	-11.1077
▁courage	-11.1084
▁कर्जमाफी	-11.1085
▁भुवनेश्वर	-11.1085
▁Agreement	-11.1085
▁Aishwarya	-11.1085
▁Akhtar	-11.1085
▁Hrithik	-11.1085
▁Pandya	-11.1085
▁Shraddha	-11.1085
▁struck	-11.1085
▁university	-11.1085
▁yield	-11.1085
▁तृणमूल	-11.1085
▁धनंजय	-11.1085
▁सखोल	-11.1085
▁हिमाचल	-11.1085
▁इंजिन	-11.1085
▁remand	-11.1085
▁Rakesh	-11.1085
▁राकेश	-11.1085
▁पंकज	-11.1085
▁anywhere	-11.1085
▁childhood	-11.1086
▁निदान	-11.1086
▁पहाटे	-11.1086
▁slamm	-11.1086
▁पगार	-11.1086
▁कैफ	-11.1087
▁राजेंद्र	-11.1087
▁personality	-11.1088
ंडे	-11.1088
▁engaged	-11.1088
▁बजावली	-11.1088
▁fee	-11.1089
▁rapidly	-11.109
▁सहाव्या	-11.109
▁procedure	-11.109
▁described	-11.1091
▁Nana	-11.1091
▁Sun	-11.1091
डू	-11.1091
▁declined	-11.1092
▁पोहोचली	-11.1092
▁Doctors	-11.1092
▁साखळी	-11.1093
▁खुना	-11.1094
▁समजाव	-11.1095
▁lying	-11.1096
▁distance	-11.1097
▁कशामुळे	-11.1097
▁विना	-11.1097
▁600	-11.1097
▁कसली	-11.1098
ंकडून	-11.11
▁Jews	-11.11
▁फेटाळली	-11.11
▁प्रेक्षकांना	-11.1104
▁मिशन	-11.1105
▁lines	-11.1107
ंगी	-11.1109
▁दाखवा	-11.1111
ंदी	-11.1117
पती	-11.1121
▁measure	-11.1121
▁सिटी	-11.1123
दीप	-11.1127
▁depend	-11.1127
▁citizen	-11.1128
▁0	-11.1128
▁organisation	-11.1128
▁विशेषत	-11.1129
▁experts	-11.1131
▁सिनेमाची	-11.114
▁बाबत	-11.1145
▁असाच	-11.1149
▁सुरक्षे	-11.1152
्यांची	-11.1155
hir	-11.1156
▁त्याच्यासोबत	-11.1162
▁कार्यक्रमाचे	-11.1163
▁supporting	-11.1167
▁मंत्रालयाच्या	-11.1168
▁वर्षाच्या	-11.1176
▁खड	-11.1177
ट्ट	-11.1179
▁lie	-11.118
▁opener	-11.1182
▁चर्च	-11.1196
्ये	-11.1196
दम	-11.1201
▁कार्यकर्त्यां	-11.1207
▁surface	-11.1208
▁equal	-11.1209
▁advance	-11.1209
▁units	-11.1209
▁withdraw	-11.1209
▁घेतात	-11.1211
▁Steve	-11.1211
▁काश्मीरमध्ये	-11.1211
▁बौद्ध	-11.1214
▁घडू	-11.1214
▁Arm	-11.1215
▁कॅबिनेट	-11.1216
▁Javadekar	-11.1216
▁Malayalam	-11.1216
▁Thereafter	-11.1216
▁Tiwari	-11.1216
▁explosion	-11.1216
▁honest	-11.1216
▁identity	-11.1216
▁नेहरू	-11.1216
▁स्मारक	-11.1216
▁coalition	-11.1217
▁football	-11.1217
▁conflict	-11.1217
▁उर्जा	-11.1217
▁Advani	-11.1217
▁विजेत्या	-11.1217
▁बोलू	-11.1217
▁Gopal	-11.1217
▁श्रीनगर	-11.1218
▁अखिल	-11.1218
▁extra	-11.1218
▁मुख्यालय	-11.1218
▁2019-20	-11.1219
▁dry	-11.1219
▁European	-11.122
▁जिंकली	-11.122
ign	-11.122
▁Case	-11.1221
▁ascertained	-11.1221
▁वडिलांनी	-11.1221
▁मनुष्यबळ	-11.1221
▁थोरात	-11.1221
▁western	-11.1222
▁premises	-11.1223
▁विजेतेपद	-11.1225
▁ignored	-11.1226
▁collected	-11.1227
म्ब	-11.1227
▁लप	-11.1227
▁fish	-11.1227
▁मिसर	-11.1228
गृह	-11.1228
▁यिर्मया	-11.1228
ley	-11.1229
▁divided	-11.123
▁हसन	-11.1231
▁Israelites	-11.1233
▁केल्यावर	-11.1235
▁परीक्षण	-11.1238
▁filled	-11.1238
▁बांधव	-11.1243
▁foot	-11.1244
्यांच्या	-11.1249
▁बॉस	-11.1252
▁require	-11.1252
set	-11.1253
▁लाखां	-11.1254
president	-11.1257
▁reaction	-11.1262
low	-11.1264
▁sectors	-11.1267
▁पाळ	-11.1269
▁react	-11.1273
▁बिहारमध्ये	-11.1274
▁fat	-11.1276
▁कुटुंबात	-11.1283
▁बघा	-11.1284
▁व्याज	-11.1284
▁हलव	-11.1284
धारक	-11.1286
▁चुक	-11.1286
▁शेतकऱ्यांचे	-11.1288
ांतर्गत	-11.1288
▁बाबी	-11.129
बाई	-11.1291
air	-11.1295
▁असणारे	-11.1298
▁drugs	-11.1301
▁भारतासाठी	-11.1301
▁बसले	-11.1308
▁बॅ	-11.1308
▁वापरण्या	-11.1314
▁fr	-11.1314
▁Lu	-11.1317
▁३३	-11.1318
▁कुणा	-11.132
▁समूह	-11.1325
,500	-11.1325
▁establish	-11.1331
▁श्रेय	-11.1333
▁dog	-11.1338
ाबाद	-11.1339
▁तेही	-11.134
lasting	-11.1343
most	-11.1343
▁drama	-11.1348
▁Desai	-11.135
▁Global	-11.135
▁Govt	-11.135
▁Indonesia	-11.135
▁Mukherjee	-11.135
▁ओडिशा	-11.135
▁कतरिना	-11.135
▁spark	-11.135
▁Himachal	-11.135
▁वंचित	-11.135
▁इटली	-11.135
▁एफआयआर	-11.135
▁truly	-11.135
▁इथं	-11.135
▁fake	-11.135
▁statue	-11.135
▁बॅटरी	-11.1351
▁गोळ्या	-11.1351
▁Was	-11.1353
HA	-11.1353
▁retired	-11.1353
▁क्ल	-11.1354
▁Financial	-11.1355
▁Bigg	-11.1356
पार	-11.1359
▁costs	-11.1359
▁Talk	-11.1359
▁निर्णयाला	-11.136
▁starting	-11.1362
▁Rane	-11.1362
▁reporters	-11.1364
▁Forest	-11.1366
▁ठरते	-11.1366
▁संकल्पना	-11.1367
▁surely	-11.1371
▁Ganesh	-11.1372
ल्यास	-11.1376
▁ऐ	-11.1377
▁linked	-11.1379
▁ऑफिसवर	-11.1383
like	-11.1385
▁celebrate	-11.1387
ापूर	-11.139
विरूद्ध	-11.139
▁एनडीए	-11.1396
▁गोष्टींचा	-11.1398
▁चांदी	-11.1403
आयसी	-11.1405
▁करारावर	-11.1407
स्टर	-11.141
▁प्रश्नांची	-11.1411
▁कृष्ण	-11.1413
▁orders	-11.1415
ute	-11.1415
▁घाला	-11.1417
▁मल	-11.1417
▁ideas	-11.1419
▁9.	-11.1423
▁परमेश्वराच्या	-11.1425
▁IN	-11.1427
▁वाढदिवस	-11.1429
वेल	-11.1438
वला	-11.144
▁Others	-11.144
▁बद्दल	-11.1446
बंध	-11.1447
▁suspects	-11.1449
▁trip	-11.145
▁फॉर	-11.145
▁caus	-11.1455
वंत	-11.1458
▁किमती	-11.1458
▁earn	-11.1459
▁अंतरावर	-11.1459
▁contains	-11.146
▁compris	-11.1461
▁माघार	-11.1462
▁लांबी	-11.1466
▁वाजव	-11.1472
▁Direct	-11.1477
▁Bas	-11.148
ins	-11.1481
▁राह	-11.1481
▁यंत्र	-11.1482
▁नितीश	-11.1485
▁drought	-11.1485
▁Rashtriya	-11.1485
▁Section	-11.1485
▁driving	-11.1485
▁medium	-11.1485
▁summit	-11.1485
▁अडथळा	-11.1485
▁कविता	-11.1485
▁कृपया	-11.1485
▁मेंदू	-11.1485
▁संपुष्टात	-11.1485
▁Earth	-11.1485
▁लाँच	-11.1485
▁निर्दोष	-11.1485
uri	-11.1485
▁Hardik	-11.1485
▁brain	-11.1485
▁रिपोर्ट	-11.1485
▁सभापती	-11.1485
▁कधीकधी	-11.1485
▁bike	-11.1486
▁अनुवाद	-11.1486
▁distress	-11.1487
▁सांगितला	-11.1487
▁recovery	-11.1487
▁मासिक	-11.1487
▁overs	-11.1487
▁पडेल	-11.1487
▁तिथल	-11.1488
▁difficulties	-11.1488
▁beaten	-11.1488
▁आवडेल	-11.1488
▁नागरिकां	-11.1489
▁contribute	-11.1489
▁एकनिष्ठ	-11.1489
▁विरोधकांनी	-11.149
▁विकेट्स	-11.1491
▁वाढविण्या	-11.1491
▁Sonam	-11.1491
▁सुधारित	-11.1492
▁मुस्लीम	-11.1493
▁1,000	-11.1495
▁दुकाने	-11.1495
▁उभी	-11.1497
▁apart	-11.1498
▁titled	-11.1499
▁condemned	-11.1499
▁structure	-11.1499
▁पृष्ठ	-11.1501
▁MNS	-11.1503
▁hundreds	-11.1505
वय	-11.1505
▁खेळण्या	-11.1506
▁लिटर	-11.1508
▁reflect	-11.1513
▁grant	-11.1515
▁सहमती	-11.1517
▁जाणे	-11.152
bra	-11.1522
▁साक्षीदारां	-11.1523
▁strongly	-11.1525
▁इराणी	-11.1527
▁cards	-11.1527
▁मार्गाने	-11.1529
▁तुट	-11.153
▁standard	-11.1534
सायन	-11.1534
▁offices	-11.1543
▁समुद्रात	-11.1543
pm	-11.1546
▁याकोब	-11.1547
▁३५	-11.1548
There	-11.1548
▁चांगलाच	-11.1553
▁cars	-11.1555
rate	-11.1556
▁जिल्ह्य	-11.1556
मध्येही	-11.1559
?”	-11.156
▁पडद्यावर	-11.1565
ानंद	-11.1567
▁खुप	-11.1578
▁throw	-11.1581
▁कोकण	-11.1582
ants	-11.1582
▁Gra	-11.1583
▁सेना	-11.1588
▁Whe	-11.1591
▁exception	-11.1594
▁1:	-11.1595
▁परदेशात	-11.16
▁reveal	-11.1604
▁काळी	-11.1604
रस	-11.1608
▁उंची	-11.1608
▁अवलंब	-11.1611
▁Pr	-11.1613
▁hike	-11.1613
▁collapse	-11.1614
्यांनी	-11.1614
▁जुळ	-11.1618
▁Tu	-11.162
▁बॅडमिंटन	-11.1622
▁अख्तर	-11.1622
▁Commerce	-11.1622
▁Space	-11.1622
▁enemies	-11.1622
▁innovation	-11.1622
▁satellite	-11.1622
▁territory	-11.1622
▁unidentified	-11.1622
▁अनुक्रमे	-11.1622
▁पारितोषिक	-11.1622
▁प्रजासत्ताक	-11.1622
▁rose	-11.1622
▁rice	-11.1622
▁losing	-11.1622
▁तिवारी	-11.1622
▁सुधीर	-11.1622
▁solar	-11.1623
▁दीड	-11.1623
▁आपापल्या	-11.1623
▁Second	-11.1624
▁Verma	-11.1624
▁usually	-11.1624
▁इच्छितो	-11.1626
▁emerged	-11.1626
▁winter	-11.1628
▁declare	-11.1629
ग्न	-11.1629
▁Pe	-11.1632
▁carefully	-11.1633
काल	-11.1635
▁स्थायी	-11.1635
▁previously	-11.1637
▁विदर्भ	-11.164
ातर्फे	-11.1641
▁लुट	-11.1644
▁designed	-11.1645
▁भाजपाने	-11.1647
▁comprises	-11.1647
▁विद्यार्थ्या	-11.165
▁सागरी	-11.1652
▁सारखे	-11.1652
▁जगत	-11.1653
▁लोकांवर	-11.1654
▁मलेशिया	-11.1654
काय	-11.1655
ट्स	-11.1656
▁भूकंपा	-11.1656
▁boys	-11.1657
▁आणला	-11.166
dha	-11.166
▁Any	-11.1664
▁शस्त्र	-11.1669
RA	-11.167
▁aside	-11.167
▁hearts	-11.1671
14	-11.1671
बाहेर	-11.1675
not	-11.1681
ृत	-11.1682
▁लढणार	-11.1684
uch	-11.1686
गिरी	-11.1689
▁शहराच्या	-11.1691
▁घोटाळा	-11.1692
▁रेड	-11.1697
▁Dan	-11.1699
▁बाजारपेठ	-11.1702
जित	-11.1703
▁Ben	-11.1705
▁Pant	-11.1707
▁tributes	-11.1709
▁चित्रपटासाठी	-11.1713
▁effects	-11.1714
▁वेद	-11.1715
▁संस्थां	-11.1716
▁वेदना	-11.1717
▁खाऊ	-11.1719
ek	-11.1721
▁बुद्धी	-11.1724
ाब	-11.1727
▁चौ	-11.1727
▁एक्स	-11.1735
▁provisions	-11.1738
▁भरून	-11.1741
▁दिसतो	-11.1742
▁चौकशीचे	-11.1752
▁रेल्वेच्या	-11.1754
▁सूत्र	-11.1755
पू	-11.1757
▁गुप्त	-11.1757
▁Sir	-11.1758
▁Trade	-11.176
emorandum	-11.1761
▁Coronavirus	-11.1761
▁Industries	-11.1761
▁Reserve	-11.1761
▁alternative	-11.1761
▁literature	-11.1761
▁studied	-11.1761
▁ऑपरेशन	-11.1761
▁सरन्यायाधीश	-11.1761
▁सीरिज	-11.1761
▁Could	-11.1761
▁batsmen	-11.1761
▁ANI	-11.1761
सुध्दा	-11.1761
▁एवढी	-11.1761
▁Corona	-11.1761
▁स्वाक्षरी	-11.1761
▁गायकवाड	-11.1761
▁झा	-11.1761
▁convert	-11.1761
▁मतभेद	-11.1761
▁उल्लेखनीय	-11.1761
▁Major	-11.1762
▁tourism	-11.1762
▁२०१९	-11.1762
▁Mother	-11.1763
▁congratulate	-11.1765
▁पटकावले	-11.1766
▁Never	-11.1766
▁महिने	-11.1766
▁शिस्त	-11.1766
▁सर्वकाही	-11.1766
ज्	-11.1767
▁७०	-11.1767
▁लीला	-11.1769
▁2:	-11.177
▁surprised	-11.177
णाऱया	-11.177
्रे	-11.1772
▁सांगली	-11.1772
त्मक	-11.1774
ela	-11.1774
▁Ask	-11.1777
▁पहाय	-11.178
▁Guru	-11.1781
प्रति	-11.1782
▁जिंकले	-11.1783
▁याठिकाणी	-11.1783
न्ड	-11.1789
▁representatives	-11.1791
▁explain	-11.1795
▁अडव	-11.1795
▁weak	-11.1796
ded	-11.1799
षधे	-11.1804
▁दिवसा	-11.1804
▁झाडे	-11.1805
▁बरोबरी	-11.1809
▁Jaya	-11.181
▁Cor	-11.1813
▁tension	-11.1813
▁prize	-11.1813
▁tribute	-11.1813
▁angel	-11.1813
▁Mad	-11.1817
▁विधानसभेच्या	-11.1817
▁व्यतिरिक्त	-11.1822
▁litre	-11.1824
▁लाच	-11.1827
▁j	-11.1835
श्‍	-11.1838
पु	-11.1841
▁विचारात	-11.1841
ND	-11.1842
23	-11.1845
io	-11.1847
बंदी	-11.1847
▁जनतेच्या	-11.1849
ूड	-11.1853
▁bowl	-11.1854
▁प्रती	-11.1855
▁दुहेरी	-11.1856
▁speaker	-11.1858
▁प्रसिद्धी	-11.1861
फो	-11.1864
oon	-11.1868
▁स्वरूपात	-11.187
िकल	-11.1872
▁अफवा	-11.1872
ising	-11.188
▁अश्विन	-11.1882
िद	-11.1883
▁उशीर	-11.1887
व्हर	-11.1887
▁starts	-11.1894
वड	-11.1897
वाड	-11.1897
▁राज्ये	-11.1897
▁Pre	-11.1898
▁दिवसांपूर्वीच	-11.1899
▁sick	-11.1901
▁जॉर्ज	-11.1901
▁विरोधकां	-11.1901
▁Temple	-11.1902
▁everybody	-11.1902
▁pride	-11.1902
▁principal	-11.1902
▁thereafter	-11.1902
▁चांगलं	-11.1902
▁दुप्पट	-11.1902
▁पाहिलं	-11.1902
▁रहिवासी	-11.1902
▁विस्कळीत	-11.1902
▁सोहळा	-11.1902
▁कृपा	-11.1902
▁रजनीकांत	-11.1902
▁ठीक	-11.1902
▁षटकार	-11.1902
▁corner	-11.1902
▁बायको	-11.1902
▁अखिलेश	-11.1902
▁Seven	-11.1902
▁Drink	-11.1902
▁वरुण	-11.1902
▁दिनेश	-11.1903
▁बुमराह	-11.1903
▁केंद्रशास	-11.1903
▁Check	-11.1904
▁pour	-11.1904
▁खालीलप्रमाणे	-11.1904
▁waiver	-11.1904
▁शब्दांत	-11.1905
▁पाहण्यासाठी	-11.1906
▁interaction	-11.1907
▁वारसा	-11.1907
▁Irani	-11.1907
▁recommended	-11.191
पत	-11.191
▁मिळवण्यासाठी	-11.1911
कम	-11.1911
▁PV	-11.1912
▁Ratna	-11.1913
▁पैशां	-11.1914
▁वाटू	-11.1915
▁severely	-11.1918
▁द्वेष	-11.1918
▁African	-11.1919
▁Mayor	-11.1919
▁प्रभु	-11.1922
न्ट	-11.1925
▁मुलांचा	-11.1929
‍	-11.193
▁stream	-11.1933
▁ढ	-11.1938
ांपर्यंत	-11.1938
▁Je	-11.1939
▁दाखवला	-11.1942
▁Baba	-11.1944
ॅन	-11.1945
▁Inter	-11.1947
▁elder	-11.1948
▁सुज्ञ	-11.1948
Pakistan	-11.1951
Congress	-11.1951
नाही	-11.1955
▁फोड	-11.1955
गन	-11.1955
▁document	-11.1955
▁argument	-11.1956
so	-11.1956
▁आलाय	-11.196
ock	-11.1961
▁Nations	-11.1961
▁स्वीकारला	-11.1962
▁वाचवण्या	-11.1963
▁राजन	-11.1967
्टन	-11.1969
िं	-11.197
एच	-11.1973
▁Jaspr	-11.1975
▁blessing	-11.1976
▁di	-11.1978
▁joining	-11.1979
ांबाबत	-11.1981
▁भौतिक	-11.1984
▁वाढी	-11.1986
▁अडचणीत	-11.1986
▁Head	-11.1991
aditya	-11.1996
▁facilitate	-11.1996
ze	-11.1997
▁कॉंग्रेसचे	-11.2007
▁नव्याने	-11.2012
ekar	-11.2016
दास	-11.2017
▁forever	-11.202
▁पेर	-11.2022
▁वाटप	-11.2028
▁Sh	-11.2029
▁नातेवाईक	-11.203
ong	-11.2032
▁theft	-11.2039
hit	-11.2039
▁Malaysia	-11.2039
▁German	-11.204
▁शास्त्र	-11.204
▁स्तर	-11.204
▁Arabia	-11.2041
▁शास्त्रज्ञ	-11.2042
▁दिवसभर	-11.2042
▁assist	-11.2042
▁असाल	-11.2042
कडील	-11.2043
▁slave	-11.2044
▁जाणवत	-11.2044
▁मेगापिक्सल	-11.2044
▁Babylon	-11.2044
▁चमत्कार	-11.2044
▁Click	-11.2044
▁उत्पत्ति	-11.2044
▁भयंकर	-11.2044
▁स्मार्ट	-11.2044
▁कचरा	-11.2044
▁Tourism	-11.2045
▁edition	-11.2045
▁तमिळ	-11.2045
▁summer	-11.2045
▁Isaiah	-11.2045
▁२०१८	-11.2045
▁Ranjan	-11.2045
▁citizenship	-11.2045
▁wonderful	-11.2047
▁असायला	-11.2047
▁बुद्ध	-11.2047
▁कार्यकर्त्यांनी	-11.2048
▁काढली	-11.205
▁favourite	-11.205
तेची	-11.2051
▁पुढीलप्रमाणे	-11.2053
▁flu	-11.2053
▁Digital	-11.2055
izing	-11.2055
▁शब्दात	-11.2055
▁Devi	-11.2057
▁lift	-11.2057
▁दिल्यानंतर	-11.2058
▁केल्याबद्दल	-11.2059
▁kings	-11.2059
▁किशोर	-11.2063
▁शवविच्छेदना	-11.2063
▁Dinesh	-11.2065
▁मनो	-11.2065
▁voted	-11.2066
▁निर	-11.2067
वती	-11.2068
▁कान	-11.207
▁connected	-11.207
▁त्याशिवाय	-11.2071
प्रकार	-11.2071
▁पडून	-11.2073
ew	-11.2075
dom	-11.2076
▁खेळणार	-11.2076
▁सोने	-11.2077
मर	-11.2079
▁गडी	-11.2079
▁resign	-11.2081
▁देह	-11.2084
▁भाजपवर	-11.2084
▁Rana	-11.2085
▁अटी	-11.2086
▁700	-11.2086
▁attempts	-11.2089
िना	-11.2089
▁घन	-11.209
▁visiting	-11.209
▁टोला	-11.2092
▁अल्प	-11.2093
▁पसरव	-11.2095
level	-11.2096
▁weapons	-11.21
▁paper	-11.2101
▁देण्याच्या	-11.2101
▁export	-11.2101
जल	-11.2106
▁चक्र	-11.2107
shan	-11.2113
▁डोळ्यां	-11.2117
▁39	-11.2118
▁टाकला	-11.2119
▁dreams	-11.2121
▁दोघां	-11.2121
िओ	-11.2121
▁शेवटचा	-11.2129
▁दहशतवादा	-11.2136
KL	-11.2139
▁देणारी	-11.2139
ंविरोधात	-11.2142
▁माफ	-11.2143
▁Nar	-11.2145
निक	-11.2147
▁breath	-11.2147
▁बनव	-11.215
▁concept	-11.2151
▁Romans	-11.2156
▁Sur	-11.2157
चंद	-11.2158
ेंट	-11.2159
▁आठव	-11.2166
वाला	-11.2166
▁reject	-11.2169
▁dwell	-11.2169
लिन	-11.2169
▁धारण	-11.217
▁roll	-11.2172
▁काढत	-11.2173
▁तज्ज्ञ	-11.2174
▁preach	-11.2176
▁कळव	-11.2177
लर	-11.218
▁immense	-11.2182
▁आरोपीं	-11.2183
▁मानला	-11.2183
▁उद्योजक	-11.2184
▁blame	-11.2188
▁उशिरा	-11.2188
▁avail	-11.2188
▁Child	-11.2189
▁sweet	-11.2189
▁Memorial	-11.2189
▁Superintendent	-11.2189
▁True	-11.2189
▁agitation	-11.2189
▁celebrities	-11.2189
▁extent	-11.2189
▁herself	-11.2189
▁insurance	-11.2189
▁perhaps	-11.2189
▁qualities	-11.2189
▁दुसऱया	-11.2189
▁निरोगी	-11.2189
▁पुनरुत्थान	-11.2189
▁प्रलंब	-11.2189
▁राठोड	-11.2189
▁वाहिली	-11.2189
▁casualties	-11.2189
▁युनिट	-11.2189
▁नेमणूक	-11.2189
▁सोलापूर	-11.2189
▁debt	-11.219
▁executive	-11.219
▁अनुकूल	-11.219
▁stories	-11.219
▁nuclear	-11.219
▁अग्रवाल	-11.219
▁precious	-11.219
▁Bhopal	-11.219
▁Sunny	-11.219
▁Rawat	-11.219
▁योजनेअंतर्गत	-11.219
▁महागाई	-11.219
▁chain	-11.219
▁चिंताजनक	-11.219
▁स्वभाव	-11.219
▁devotees	-11.219
▁लक्षणीय	-11.219
▁सातारा	-11.2191
▁खंडणी	-11.2191
▁क्लब	-11.2192
▁chosen	-11.2192
▁Code	-11.2193
▁constituted	-11.2194
▁feels	-11.2196
▁adequate	-11.2197
▁elderly	-11.2197
▁जोरावर	-11.2198
▁मासे	-11.2198
▁Along	-11.2199
▁तिघांना	-11.2199
▁मॅच	-11.22
▁होम	-11.2201
▁निवासस्थानी	-11.2201
▁उपकरणे	-11.2203
▁राहण्याचा	-11.2207
▁explained	-11.2208
▁वेगवेगळे	-11.2208
▁SBI	-11.2209
▁Bihari	-11.2211
var	-11.2215
ying	-11.2216
तेचे	-11.2217
▁amongst	-11.2218
▁feed	-11.2221
▁सदस्यांनी	-11.2223
▁नैतिक	-11.2232
▁52	-11.2234
▁figure	-11.2236
▁वीर	-11.2236
▁वाहत	-11.2237
▁महिलेचा	-11.2248
▁दुस	-11.2251
▁वेब	-11.2255
▁भागीदार	-11.2257
मार्ग	-11.2258
▁दोघांनाही	-11.2262
▁Ban	-11.2265
▁गरजा	-11.2267
▁शी	-11.2267
▁पानांवर	-11.2278
▁par	-11.2279
▁प्या	-11.2279
▁बाजी	-11.2279
▁भूषण	-11.228
▁देतील	-11.2282
term	-11.2286
graph	-11.2286
भाई	-11.2296
▁तार	-11.2297
▁कर्करोग	-11.2299
▁घटनास्थळावर	-11.23
fer	-11.2301
▁विषयांवर	-11.2305
!"	-11.2309
▁शोधून	-11.2309
apur	-11.231
पटू	-11.231
▁studying	-11.231
५०	-11.2315
▁sc	-11.2317
▁mix	-11.2319
▁संदर्भ	-11.2321
▁संख्येत	-11.2321
▁विष	-11.2326
▁HC	-11.2327
क्शन	-11.2328
▁realize	-11.2329
मुळं	-11.233
▁Kha	-11.2333
▁लोकं	-11.2334
has	-11.2334
पक्ष	-11.2335
फ्ट	-11.2336
▁proceed	-11.2336
▁Nawaz	-11.2336
▁smart	-11.2336
▁Federation	-11.2336
▁Private	-11.2336
▁Rajinikanth	-11.2336
▁Stadium	-11.2336
▁Sudhir	-11.2336
▁beneficial	-11.2336
▁club	-11.2336
▁magazine	-11.2336
▁plastic	-11.2336
▁असंख्य	-11.2336
▁असोसिएशन	-11.2336
▁मध्यप्रदेश	-11.2336
▁मालमत्ता	-11.2336
▁trigger	-11.2336
▁improving	-11.2336
▁परिवहन	-11.2337
▁Akhilesh	-11.2337
▁grace	-11.2337
▁क्रांती	-11.2337
▁package	-11.2337
▁retirement	-11.2337
▁root	-11.2337
▁shape	-11.2337
▁cop	-11.2338
▁लिंक	-11.2338
▁जसप्र	-11.2338
▁नकारात्मक	-11.2338
▁सत्ताधार	-11.2338
▁Indore	-11.2338
▁disappointed	-11.2339
टन	-11.234
▁Finally	-11.2341
▁Manish	-11.2341
▁ठेवावे	-11.2341
डब्ल्यू	-11.2343
▁आल्याची	-11.2344
▁nominated	-11.2345
▁न्यूज	-11.2346
▁सोनम	-11.2347
▁dear	-11.2349
▁presently	-11.2349
▁inaugurate	-11.235
▁कन्या	-11.2352
▁unity	-11.2353
▁isn	-11.2354
▁flights	-11.2355
▁लक्ष्मी	-11.2357
▁अहवालात	-11.2357
▁संत	-11.2362
▁जबरदस्त	-11.2364
▁बोलतो	-11.2368
▁fund	-11.2373
▁shoulder	-11.2381
▁दिस	-11.2381
▁masks	-11.2385
▁लोकांमध्ये	-11.2386
▁हल्लेखोर	-11.2386
▁देशासाठी	-11.2387
▁भार	-11.2388
▁केलंय	-11.2388
पासूनच	-11.239
▁मॅ	-11.239
▁टोक	-11.2394
वल	-11.2395
IP	-11.2395
▁अभाव	-11.2395
ora	-11.2397
▁relative	-11.2398
▁माणसाला	-11.2402
▁३२	-11.2406
car	-11.2406
▁Rain	-11.2409
▁reforms	-11.2411
▁theme	-11.2422
▁माता	-11.2426
▁पोल	-11.2426
ker	-11.2429
ल्ला	-11.2441
arious	-11.2445
▁ill	-11.2446
▁4,	-11.2446
▁Get	-11.2447
bha	-11.2448
▁experiences	-11.2453
dia	-11.2458
ंदे	-11.2459
▁अधिका	-11.2459
▁पटल	-11.2459
▁deposit	-11.2468
60	-11.247
▁ऐकत	-11.247
▁खु	-11.2474
▁Far	-11.2476
ाध्यक्ष	-11.2477
▁decline	-11.2478
▁quick	-11.2478
▁initial	-11.2478
▁अस्तित्व	-11.2479
▁sentence	-11.2481
▁abuse	-11.2482
▁हत्ये	-11.2482
▁अस्वस्थ	-11.2482
▁Port	-11.2483
▁नेटवर्क	-11.2484
▁स्वरुप	-11.2485
▁broad	-11.2486
▁Bureau	-11.2486
▁Independence	-11.2486
▁Instead	-11.2486
▁Jacob	-11.2486
▁Ladakh	-11.2486
▁Malhotra	-11.2486
▁Marathwada	-11.2486
▁Nadda	-11.2486
▁Petrol	-11.2486
▁Through	-11.2486
▁Timothy	-11.2486
▁Would	-11.2486
▁administrative	-11.2486
▁agencies	-11.2486
▁diabetes	-11.2486
▁policies	-11.2486
▁twenty	-11.2486
▁violent	-11.2486
▁yesterday	-11.2486
▁कन्नड	-11.2486
▁यहुदी	-11.2486
▁वगळता	-11.2486
▁marry	-11.2486
▁integrity	-11.2486
▁अडवाणी	-11.2486
▁कबूल	-11.2486
▁monsoon	-11.2486
▁कार्तिक	-11.2486
▁पालघर	-11.2486
▁guidance	-11.2486
ES	-11.2486
▁burden	-11.2486
▁सुपरस्टार	-11.2486
▁Mirza	-11.2486
▁superstar	-11.2486
▁संतोष	-11.2486
▁silent	-11.2486
▁Canada	-11.2486
▁Tiger	-11.2486
▁२०१७	-11.2486
▁resurrection	-11.2486
▁आदमी	-11.2486
▁ओपन	-11.2486
▁bright	-11.2487
▁प्रक्षेपण	-11.2487
▁Report	-11.2487
▁battery	-11.2487
▁नसले	-11.2487
▁महाजन	-11.2487
▁ट्रस्ट	-11.2487
▁Swami	-11.2488
▁intention	-11.2488
▁guide	-11.2489
▁दाट	-11.2489
▁उत्सुकता	-11.2491
▁भागवत	-11.2492
▁exit	-11.2494
्ली	-11.2497
▁विभागीय	-11.2499
▁blessed	-11.2502
▁फिर्याद	-11.2505
▁उतरले	-11.2506
योग	-11.2506
ंद्र	-11.2508
▁मुळात	-11.2508
▁sn	-11.2509
▁शर्माने	-11.2511
▁शरीरात	-11.2511
▁wine	-11.2516
▁पाठवला	-11.2518
▁दृश्य	-11.252
▁courts	-11.2521
▁बोलून	-11.2523
▁काहीजण	-11.2525
मेल	-11.2525
ॉय	-11.2525
▁पाटणा	-11.2534
▁पुरस्काराने	-11.2538
बर्ग	-11.254
▁संस्थेच्या	-11.2541
▁साधने	-11.2543
भूषण	-11.2543
▁newly	-11.2543
▁यासंबंधी	-11.2547
▁८०	-11.2551
▁ऐश्वर्या	-11.2551
▁Dhan	-11.2553
▁केलीय	-11.2555
▁वाढणार	-11.2565
▁Jag	-11.2568
▁सगळेच	-11.2571
▁attending	-11.2573
▁इस्लाम	-11.2573
▁आयोगाच्या	-11.2573
्वे	-11.2578
▁scor	-11.2579
▁हरि	-11.2582
istic	-11.2586
▁यजमान	-11.2598
▁खानने	-11.2599
lf	-11.26
▁select	-11.2602
▁ठेवणार	-11.2609
▁भाषणात	-11.2609
iz	-11.261
▁गेम	-11.2616
▁भुत	-11.2621
▁खटल्या	-11.2627
▁survive	-11.2629
▁उदय	-11.2629
▁sets	-11.2633
ef	-11.2633
▁नियुक्त	-11.2634
▁suit	-11.2637
▁राहिल्या	-11.2637
▁हल्ले	-11.2637
▁White	-11.2637
▁beneficiaries	-11.2637
▁chemical	-11.2637
▁memory	-11.2637
▁province	-11.2637
▁sworn	-11.2637
▁उमेश	-11.2637
▁नीरव	-11.2637
▁मायावती	-11.2637
▁mercy	-11.2637
▁छोटे	-11.2637
▁पंडित	-11.2637
▁अब्दुल्ला	-11.2637
▁gear	-11.2637
▁कॅप्टन	-11.2637
▁criticism	-11.2637
▁चौहान	-11.2637
▁Satara	-11.2637
▁prosperity	-11.2637
▁भिन्न	-11.2638
▁Italy	-11.2638
▁ईशान्य	-11.2638
▁मिळविले	-11.2638
▁प्रीती	-11.2638
▁रिक्त	-11.2638
▁iron	-11.2638
प्रती	-11.2639
▁Manipur	-11.2639
▁करण्याकरता	-11.2639
▁लिलाव	-11.2639
▁महत्त्वाचं	-11.2639
▁quoted	-11.264
माल	-11.264
▁करायचं	-11.264
▁कोड	-11.2641
▁Prana	-11.2641
▁ख्रिश्‍चनांना	-11.2642
▁बोलणे	-11.2642
▁trials	-11.2644
▁पुरा	-11.2645
▁confessed	-11.2645
▁सीईओ	-11.2647
▁Young	-11.2647
▁मदतीसाठी	-11.2647
▁circuit	-11.2648
▁कौर	-11.2649
▁encouraged	-11.2649
▁तारण	-11.265
सरकार	-11.265
▁adopted	-11.2651
▁consult	-11.2653
▁positions	-11.2653
ाज	-11.2654
▁slogans	-11.2656
▁दोघांची	-11.2659
▁wearing	-11.2659
ूल	-11.2661
▁130	-11.2662
क्षेत्र	-11.2665
cl	-11.2666
hil	-11.2667
▁जाण्यास	-11.267
▁Shan	-11.267
▁Roman	-11.2672
▁रुग्णांना	-11.2674
▁आरोपींचा	-11.2677
▁खेळला	-11.2678
▁४५	-11.2679
▁affairs	-11.268
▁enjoyed	-11.2681
▁store	-11.2681
ाकरता	-11.2681
▁log	-11.2683
▁इजा	-11.2683
वेळ	-11.2691
▁Land	-11.2691
▁पात्रता	-11.2692
▁drug	-11.2693
▁असण्या	-11.2694
hab	-11.2696
▁आयुष	-11.2697
▁mayor	-11.2699
आपल्या	-11.27
ets	-11.2701
▁certificate	-11.2702
▁method	-11.2702
▁Championship	-11.2702
िव्ह	-11.2704
▁GB	-11.2704
▁quarter	-11.2706
▁bowler	-11.2708
▁दत्ता	-11.271
▁talked	-11.2712
▁मजल	-11.2713
▁तत्काल	-11.2713
▁महेंद्रसिं	-11.2717
▁Ru	-11.2721
▁Kun	-11.2725
▁पूल	-11.2726
▁Premi	-11.2728
▁मागच्या	-11.273
▁पकडण्या	-11.273
▁लपव	-11.2731
▁सेंटर	-11.2734
आपण	-11.2738
▁era	-11.2739
▁protesting	-11.274
▁dealing	-11.2742
let	-11.2743
त्रे	-11.2745
▁नौदला	-11.2746
▁gr	-11.2751
▁तारा	-11.2753
▁Dar	-11.2755
व्य	-11.2757
▁Members	-11.2758
ंबद्दल	-11.2763
▁निसर्ग	-11.2767
are	-11.2768
▁suggest	-11.2772
PM	-11.2772
▁अकाऊंटवर	-11.2781
▁अंगावर	-11.2785
▁secure	-11.2786
भि	-11.279
nic	-11.2791
megapixel	-11.2791
▁Kulkarni	-11.2791
▁Mufti	-11.2791
▁Umesh	-11.2791
▁YouTube	-11.2791
▁chapter	-11.2791
▁earthquake	-11.2791
▁excited	-11.2791
▁grateful	-11.2791
▁harmony	-11.2791
▁protein	-11.2791
▁strategy	-11.2791
▁आमंत्रण	-11.2791
▁उत्तेजन	-11.2791
▁दुजोरा	-11.2791
▁पदुकोण	-11.2791
▁लडाख	-11.2791
▁जितेंद्र	-11.2791
▁पाहिली	-11.2791
▁ब्राझील	-11.2791
▁शंभर	-11.2791
▁सिंचन	-11.2791
▁Sushil	-11.2791
▁2-0	-11.2791
▁Daniel	-11.2791
▁Vivek	-11.2791
▁अनुसूच	-11.2791
▁behold	-11.2791
▁उत्तरप्रदेश	-11.2791
▁वैभव	-11.2791
▁Vikas	-11.2791
▁acquitted	-11.2791
▁fault	-11.2791
▁tribal	-11.2791
▁तिघे	-11.2791
▁proceedings	-11.2791
▁शौल	-11.2791
▁appreciation	-11.2791
▁Leela	-11.2791
▁जामिना	-11.2792
▁background	-11.2792
▁पाठविले	-11.2792
▁स्पेन	-11.2792
▁Vadra	-11.2792
▁baptized	-11.2792
▁सुनावली	-11.2793
▁outstanding	-11.2793
▁उभय	-11.2794
▁Lalu	-11.2795
▁कागदपत्रे	-11.2795
▁practical	-11.2796
SC	-11.2796
▁settled	-11.2796
▁अधिकाऱ्या	-11.2796
▁Jaipur	-11.2796
▁दिसली	-11.2797
▁अलीकडेच	-11.2797
▁brings	-11.2798
▁hate	-11.2799
▁क्ष	-11.28
▁sentenced	-11.28
▁चाहत्यांना	-11.28
्द	-11.2801
▁replaced	-11.2802
गम	-11.2805
▁स्रोत	-11.2805
ender	-11.2805
▁Saul	-11.2805
शास	-11.2806
▁शहरांमध्ये	-11.2807
बू	-11.2809
▁अनेकांनी	-11.2809
▁icon	-11.2813
▁महिलांचा	-11.2815
▁आरोपींनी	-11.2815
▁row	-11.2817
▁खोऱ्यात	-11.2817
▁रावत	-11.2818
▁NIA	-11.2818
▁master	-11.2819
ंय	-11.282
▁recommendations	-11.2824
▁shortly	-11.2826
▁महाग	-11.2827
▁अमर	-11.2827
▁निराशा	-11.283
ाव्यात	-11.283
▁targeted	-11.2833
▁फळे	-11.2835
▁solutions	-11.2837
▁ज्यांच्या	-11.2837
▁एवढे	-11.2839
▁instructions	-11.2839
▁भारतामध्ये	-11.2841
ांस	-11.2842
ray	-11.2842
EC	-11.2847
rum	-11.2848
▁निर्यात	-11.2848
board	-11.2848
▁क्रिया	-11.2849
▁Highways	-11.2851
▁Start	-11.2852
▁totally	-11.2852
▁पाठ	-11.2853
charge	-11.2854
03	-11.2854
▁३६	-11.2854
आणि	-11.2855
▁nomination	-11.2858
▁Fe	-11.2863
▁दिवसांच्या	-11.2863
▁उपनगर	-11.2864
▁फेटाळला	-11.2864
fa	-11.2865
▁घरातील	-11.2867
rew	-11.2868
▁aspects	-11.2868
ree	-11.2868
▁हटवण्या	-11.2874
▁रॉयल	-11.2878
▁bag	-11.2881
▁Sp	-11.2881
▁सोपवण्या	-11.2884
▁59	-11.2884
▁सांगण्या	-11.2885
▁du	-11.2886
▁papers	-11.2886
िड	-11.2891
▁त्याच्याशी	-11.2894
▁आठवड्या	-11.2894
spect	-11.2898
▁अभियाना	-11.29
▁त्रि	-11.2912
▁regions	-11.2912
garh	-11.2913
DA	-11.2913
IL	-11.2916
▁convention	-11.2919
lat	-11.2921
▁समृद्ध	-11.2922
▁pioneer	-11.2923
▁बेन	-11.2924
▁owner	-11.2932
24	-11.2933
cal	-11.2933
ीज	-11.2934
hat	-11.2934
ांवरील	-11.2935
ev	-11.2936
▁४८	-11.2937
▁त्याआधी	-11.2938
▁buildings	-11.2939
▁जोडण्या	-11.2941
▁उभारणी	-11.2942
ane	-11.2945
▁signs	-11.2945
fully	-11.2947
▁George	-11.2947
▁Maratha	-11.2947
▁Proverbs	-11.2947
▁excellent	-11.2947
▁healthcare	-11.2947
▁heavily	-11.2947
▁species	-11.2947
▁आराखडा	-11.2947
▁तिथून	-11.2947
▁यहूदी	-11.2947
▁वनस्पती	-11.2947
▁ISRO	-11.2947
▁profit	-11.2947
▁मानवजाती	-11.2947
▁1-0	-11.2947
▁सल्ल्या	-11.2947
▁घटस्फोट	-11.2947
▁cloud	-11.2947
▁ऊर्जे	-11.2947
▁obey	-11.2947
▁technologies	-11.2948
▁scientific	-11.2948
▁२०१५	-11.2948
▁collaboration	-11.2948
▁fray	-11.2949
▁अन्‍न	-11.2949
▁उशिरापर्यंत	-11.2949
▁Che	-11.2949
▁स्वयंसेवक	-11.295
75	-11.295
▁राजकुमार	-11.295
▁शॉ	-11.295
▁cool	-11.2951
MP	-11.2951
▁mob	-11.2951
▁अर्धशतक	-11.2951
▁कुठून	-11.2952
▁Kumaraswamy	-11.2953
▁Line	-11.2953
▁humanity	-11.2953
▁नसलेल्या	-11.2953
▁९०	-11.2955
▁spotted	-11.2955
▁मिळवली	-11.2956
▁complained	-11.2956
▁मनीष	-11.2956
▁मुलांनी	-11.2957
▁साजरी	-11.2958
mate	-11.2958
▁प्रेरित	-11.2958
ua	-11.2959
ily	-11.2959
▁Smr	-11.296
▁काढ	-11.2961
▁leaves	-11.2964
▁सागर	-11.2965
▁इंडियन्स	-11.2965
▁दृष्टी	-11.2966
घो	-11.2968
▁Bhavan	-11.2968
▁निवडले	-11.2969
▁blocked	-11.2972
ोरी	-11.2972
gam	-11.2973
▁ठरल्या	-11.2975
▁कुटुंबाला	-11.2985
▁साध	-11.2985
kha	-11.2986
▁closely	-11.2992
▁मुळी	-11.2993
▁जनतेने	-11.2993
आप	-11.2996
▁करणार्‍या	-11.2997
▁Amar	-11.3
▁शंकर	-11.3002
▁खि	-11.3006
्यांचा	-11.3007
▁Brothers	-11.301
Mumbai	-11.3013
gaon	-11.3015
cer	-11.3016
वरही	-11.3016
▁cameras	-11.3016
▁गिल	-11.3016
▁neighbour	-11.3017
▁resident	-11.3017
▁arrangement	-11.3018
▁listening	-11.3019
▁arms	-11.302
▁सुचव	-11.3023
nam	-11.3025
▁पाण्याच्या	-11.3029
▁बदलली	-11.3031
▁dam	-11.3031
▁ढो	-11.3032
▁घेतील	-11.3038
▁bagg	-11.3042
▁photograph	-11.3042
श्री	-11.3042
▁ठरवण्या	-11.3044
▁पॅ	-11.3045
▁देशांना	-11.3045
▁पत्रात	-11.3046
hr	-11.3047
▁आणखीन	-11.3051
dis	-11.3052
थी	-11.3052
▁53	-11.3052
▁संघटनेच्या	-11.3052
▁चुका	-11.3053
▁सावर	-11.3054
▁महापालिके	-11.3055
उतार	-11.3055
अप	-11.3061
▁चेक	-11.3065
▁लोट	-11.3068
▁प्रकारात	-11.3068
▁होणारी	-11.3072
▁borders	-11.3079
▁सायना	-11.3081
वाडा	-11.3081
▁अभि	-11.3089
▁heads	-11.3095
ल्प	-11.3098
▁यासह	-11.31
▁catch	-11.3103
▁dark	-11.3105
▁Broadcasting	-11.3106
▁Everybody	-11.3106
▁Myanmar	-11.3106
▁System	-11.3106
▁academic	-11.3106
▁fraud	-11.3106
▁operating	-11.3106
▁poverty	-11.3106
▁valley	-11.3106
▁अमेरिकी	-11.3106
▁Abdullah	-11.3106
▁Nawab	-11.3106
▁Video	-11.3106
▁emphasis	-11.3106
▁रूपांतर	-11.3106
▁लिहिली	-11.3106
▁arrival	-11.3106
▁जडेजा	-11.3106
▁confusion	-11.3106
▁Abdul	-11.3106
▁सीआरपीएफ	-11.3106
▁ग्रीक	-11.3107
▁proof	-11.3107
▁Investment	-11.3107
▁records	-11.3107
▁hall	-11.3107
▁कार्यभार	-11.3107
▁Col	-11.3108
▁पवन	-11.3108
▁duo	-11.3108
▁करिना	-11.3108
▁घालावे	-11.3108
▁ताबा	-11.3109
▁Income	-11.3109
▁nice	-11.3109
▁बालकां	-11.311
▁हद्दीत	-11.311
▁campus	-11.3111
▁केल्याप्रकरणी	-11.3111
▁सातव्या	-11.3111
▁violation	-11.3112
▁आयटी	-11.3113
▁खाण्या	-11.3115
▁Aurangabad	-11.3116
aya	-11.3116
▁detailed	-11.3117
्यवान	-11.3117
▁Meeting	-11.3117
▁है	-11.3117
▁promotion	-11.3117
▁जेएनयू	-11.312
बाजी	-11.3122
▁नेत्यांना	-11.3122
▁दिनानिमित्त	-11.3123
▁पं	-11.3123
▁मारा	-11.3125
▁पथकाने	-11.3127
▁आराम	-11.3127
▁खोल	-11.3128
▁नाकार	-11.3128
ile	-11.313
▁चळवळी	-11.3131
▁RJD	-11.3131
hood	-11.3133
▁formation	-11.3134
name	-11.3135
वीण	-11.3137
▁ऑफर	-11.3139
▁सूर	-11.3139
▁नेत्यांची	-11.3141
▁midst	-11.3143
▁लागलं	-11.3146
▁काळ्या	-11.3149
▁मांडला	-11.3152
▁सिने	-11.3154
▁historical	-11.3158
▁entirely	-11.3159
ब्ब	-11.3161
▁आठवत	-11.3164
ched	-11.3164
▁मिसळ	-11.3168
फी	-11.317
▁धार	-11.3171
▁घेतलेली	-11.3174
▁AC	-11.3175
▁सोन	-11.3178
-16	-11.3178
▁Schools	-11.3179
eel	-11.3181
▁कुर	-11.3182
▁अधिकच	-11.3183
000	-11.3184
▁सेन	-11.3184
▁छाप	-11.3186
▁belongs	-11.3187
▁streets	-11.3191
▁संमेलन	-11.3196
००	-11.3197
▁greatly	-11.3197
▁व्यक्‍तीला	-11.32
▁कोणाची	-11.3201
▁bowlers	-11.3201
▁spreading	-11.3202
▁Easter	-11.3202
▁सर्वांच्या	-11.3206
PA	-11.3209
▁Br	-11.3219
▁साह	-11.3221
▁Say	-11.3222
▁ठेवत	-11.3223
▁observe	-11.3224
▁Ke	-11.3226
▁Matt	-11.3227
▁देवावर	-11.3233
▁कोठे	-11.3251
▁टि	-11.3253
33	-11.3256
▁investigate	-11.3259
▁62	-11.3262
▁Protest	-11.3262
डय	-11.3263
▁Energy	-11.3267
▁Mayawati	-11.3267
▁enemy	-11.3267
▁expensive	-11.3267
▁गमवाव	-11.3267
▁निरीक्षण	-11.3267
▁न्यूयॉर्क	-11.3267
▁बेकायदेशीर	-11.3267
▁मुफ्ती	-11.3267
▁मेडिकल	-11.3267
▁म्यानमार	-11.3267
▁सौंदर्य	-11.3267
▁हकालपट्टी	-11.3267
▁उपासने	-11.3267
▁Ishant	-11.3267
▁combat	-11.3267
▁pool	-11.3267
▁सहायक	-11.3267
▁सौम्य	-11.3267
▁अब्दुल	-11.3267
▁पायनियर	-11.3267
▁insult	-11.3267
▁बंधनकारक	-11.3267
▁भगवान	-11.3267
▁Pratap	-11.3268
▁पाहिल्या	-11.3268
▁२०१६	-11.3268
▁Bhutan	-11.3268
▁पालिका	-11.3268
▁Warner	-11.3268
▁doubles	-11.3268
▁बारीक	-11.3268
▁गुरू	-11.3268
▁सर्वप्रथम	-11.3268
▁तिसरी	-11.3268
▁Remember	-11.3268
▁नड्डा	-11.3269
▁रॅली	-11.3269
▁bigger	-11.3269
▁overcome	-11.3269
▁करावं	-11.327
▁BMC	-11.3271
▁pure	-11.3272
▁तुकडे	-11.3273
▁चाचण्या	-11.3274
▁सोप	-11.3274
्समध्ये	-11.3277
▁हिच्या	-11.3279
▁improvement	-11.328
▁Champions	-11.3281
▁120	-11.3283
▁सरकारमध्ये	-11.3284
▁तीच	-11.3284
▁घडलेल्या	-11.3286
ole	-11.3287
▁नियमांचे	-11.3287
▁sufficient	-11.3288
▁दाखवण्यात	-11.3289
▁coal	-11.329
प्ट	-11.3291
कुल	-11.3292
▁बांधवां	-11.3294
▁घडून	-11.3295
भार	-11.3295
▁willing	-11.3299
▁लोकांसाठी	-11.3299
▁निर्णयावर	-11.33
▁गमाव	-11.33
▁काँग्रेसमध्ये	-11.3302
▁सक्ती	-11.3307
▁रान	-11.3308
illa	-11.3309
▁friendly	-11.331
▁वाहनांची	-11.3311
94	-11.3311
▁meant	-11.3311
my	-11.3312
▁लढवत	-11.3312
▁फॉर्म	-11.3322
▁घालत	-11.3323
▁statements	-11.3325
ासंबंधी	-11.3327
▁प्रतिकार	-11.3327
▁strengthening	-11.3328
▁लागून	-11.3329
▁थंडी	-11.3332
▁त्यापेक्षा	-11.3337
olar	-11.3339
कन	-11.334
▁champion	-11.3341
▁remark	-11.3343
धन	-11.3346
▁स्टेडियम	-11.3347
▁politicians	-11.3347
light	-11.335
▁principle	-11.335
anand	-11.335
▁आपणास	-11.3355
▁साधत	-11.3357
▁पक्षी	-11.3357
▁चुकी	-11.3358
▁IIT	-11.3358
▁प्रशासना	-11.336
▁चिंते	-11.3373
▁बसून	-11.3373
युक्‍त	-11.3374
▁केन	-11.3374
ire	-11.3376
▁गुर	-11.3377
▁sales	-11.3379
▁भवन	-11.338
▁नोकर	-11.3383
▁पुरे	-11.3385
▁band	-11.3388
▁दुर्	-11.3389
ईट	-11.339
▁skills	-11.3392
▁हलवण्या	-11.3393
deep	-11.3393
▁आंदोलकांन	-11.3396
▁हरव	-11.3398
jo	-11.3398
▁रुग्णालया	-11.3399
ूष	-11.34
▁रुप	-11.3403
▁Sen	-11.3404
▁Chi	-11.3406
▁मध	-11.3409
सिस	-11.341
cul	-11.341
▁नेम	-11.3412
▁नाय	-11.3417
▁उपकरण	-11.3424
▁Vishwa	-11.3427
▁gods	-11.3428
▁chose	-11.3428
▁तत्व	-11.3428
▁favor	-11.3429
▁दौऱ्या	-11.3429
▁मुलाखती	-11.343
▁सभे	-11.343
lok	-11.343
▁regret	-11.3431
▁GDP	-11.3431
▁Political	-11.3431
▁Principal	-11.3431
▁Should	-11.3431
▁blind	-11.3431
▁controversial	-11.3431
▁mandatory	-11.3431
▁panchayat	-11.3431
▁pistol	-11.3431
▁preparing	-11.3431
▁understood	-11.3431
▁variety	-11.3431
▁venue	-11.3431
▁उजव्या	-11.3431
▁कमतरता	-11.3431
▁जवाहर	-11.3431
▁प्लास्टिक	-11.3431
▁मराठा	-11.3431
▁मिर्झा	-11.3431
▁amazing	-11.3431
▁pleasure	-11.3431
▁forecast	-11.3431
▁जेम्स	-11.3431
▁harvest	-11.3431
▁password	-11.3431
▁सुरळीत	-11.3431
▁भेदभाव	-11.3431
▁आटोक्यात	-11.3431
▁Understanding	-11.3431
▁Azad	-11.3431
▁keen	-11.3432
▁completion	-11.3432
▁punishment	-11.3432
▁surgery	-11.3432
▁साथीदार	-11.3432
▁राहायला	-11.3433
▁निकष	-11.3433
▁protestors	-11.3433
▁flat	-11.3433
▁शिकायला	-11.3434
▁लेवी	-11.3435
▁cry	-11.3435
▁भूतान	-11.3435
▁वास्तविक	-11.3435
▁सौरव	-11.3435
▁टीके	-11.3436
▁fallen	-11.3436
हान	-11.3436
▁repeatedly	-11.3437
▁collector	-11.3437
▁जागांसाठी	-11.3439
bur	-11.3439
▁delivery	-11.344
▁fixed	-11.3441
▁धर्मा	-11.3443
▁cap	-11.3445
▁examined	-11.3446
▁हालचाली	-11.3447
बाद	-11.3447
▁वृक्ष	-11.3448
पदाची	-11.3448
▁आयआयटी	-11.3448
▁उद्देशाने	-11.3451
▁विवाहित	-11.3453
▁घेताना	-11.3455
▁अधिवेशनात	-11.3456
शक	-11.3464
▁दलाने	-11.3464
▁invite	-11.3464
▁आवडतात	-11.3464
▁Pu	-11.3465
22	-11.3466
▁personally	-11.3466
्मा	-11.3468
▁रंजन	-11.3468
▁गार	-11.3468
▁wood	-11.347
▁लढती	-11.347
▁थोड्या	-11.347
▁पटली	-11.347
▁ह्‍या	-11.347
कारण	-11.3472
▁21-	-11.3473
all	-11.3476
▁कं	-11.3478
▁गे	-11.3479
▁ऐकू	-11.3481
▁चला	-11.3481
▁संघटनेने	-11.3482
▁यात्रे	-11.3485
▁पीठ	-11.3486
▁birds	-11.3487
▁बोलणार	-11.3487
cle	-11.3488
▁त्याविषयी	-11.3488
▁moon	-11.3493
▁Swachh	-11.3493
▁हिम	-11.3494
▁नेतृत्वाखालील	-11.3495
▁walking	-11.3496
▁टाका	-11.3499
▁नागरिकांच्या	-11.35
ंबाबत	-11.3501
▁increases	-11.3505
▁countrys	-11.3506
▁street	-11.3509
▁rupee	-11.3509
▁बॉ	-11.3515
▁संघटनां	-11.3516
▁निर्	-11.352
use	-11.3522
shed	-11.3522
▁अर	-11.3525
▁खात	-11.3528
▁अब	-11.3529
If	-11.3531
▁फी	-11.3533
जय	-11.3534
दारी	-11.3535
▁मधून	-11.3538
bir	-11.3539
▁सत्रात	-11.3541
▁Star	-11.3542
▁useful	-11.3546
km	-11.3556
▁95	-11.3558
▁bless	-11.3562
मंड	-11.3563
▁departments	-11.357
US	-11.357
▁वातावरणात	-11.3572
▁micro	-11.3574
▁एकर	-11.3582
▁wonder	-11.3582
ify	-11.3583
shish	-11.3584
▁कमीत	-11.3586
▁sharp	-11.359
▁Similar	-11.359
▁Bho	-11.3592
िटी	-11.3593
▁II	-11.3594
Mo	-11.3597
Laughter	-11.3598
विरुध्द	-11.3598
▁Azhar	-11.3598
▁Bhansali	-11.3598
▁Executive	-11.3598
▁Fortunately	-11.3598
▁Jitendra	-11.3598
▁alcohol	-11.3598
▁connectivity	-11.3598
▁infected	-11.3598
▁saith	-11.3598
▁कटिबद्ध	-11.3598
▁क्षेपणास्त्र	-11.3598
▁घडामोडी	-11.3598
▁विशाल	-11.3598
▁Pandit	-11.3598
▁quiet	-11.3598
▁तथ्य	-11.3598
▁वॉर्नर	-11.3598
▁सामूह	-11.3598
▁हर्षवर्धन	-11.3598
▁altar	-11.3598
▁अपराध	-11.3598
▁आदाम	-11.3598
▁Rural	-11.3598
▁Spain	-11.3598
▁पेट्रोलियम	-11.3598
▁एवढा	-11.3598
▁रूपये	-11.3598
▁कुमारस्वामी	-11.3599
▁बहुजन	-11.3599
▁त्वचा	-11.3599
▁लसीकरण	-11.3599
▁darkness	-11.3599
▁पुरेसा	-11.3599
▁fitness	-11.36
▁Directorate	-11.3601
▁distributed	-11.3601
▁absolutely	-11.3602
▁मावळ	-11.3603
▁suddenly	-11.3603
▁bid	-11.3604
▁अपक्ष	-11.3604
▁काढण्यासाठी	-11.3604
era	-11.3605
▁राहण्यासाठी	-11.3605
▁drawn	-11.3605
▁बनली	-11.3605
▁तरूण	-11.3606
▁वाढण्याची	-11.3606
▁convicted	-11.3607
ेपर्यंत	-11.3607
▁routes	-11.3608
▁मांडली	-11.361
▁10,000	-11.3611
▁हाऊस	-11.3611
▁Kaur	-11.3611
▁वाटलं	-11.3612
▁properly	-11.3612
▁शेतकऱ्या	-11.3612
▁operational	-11.3613
▁ठेवल्या	-11.3613
▁deeply	-11.3616
▁स्वीकारली	-11.3616
▁२००	-11.3616
▁sexually	-11.3617
▁suggested	-11.3617
▁Photo	-11.362
▁टे	-11.3621
▁105	-11.3622
▁bowling	-11.3627
आम	-11.3627
▁consequences	-11.3627
▁conferr	-11.3631
▁जाग	-11.3637
▁होण्याचे	-11.3639
▁56	-11.364
▁solve	-11.364
ought	-11.364
▁आयपीएलमध्ये	-11.3641
▁जाता	-11.3642
▁चौक	-11.3644
▁दाखवत	-11.3647
▁तंत्रज्ञानाचा	-11.3648
▁77	-11.365
▁Name	-11.3654
▁चित्रपटामध्ये	-11.3654
▁कश्मीर	-11.3654
▁मुर	-11.3656
▁अग्र	-11.3658
▁झाक	-11.366
▁सभागृह	-11.3661
र्द	-11.3661
▁मृत्यूनंतर	-11.3661
वारी	-11.3664
▁गोव्यात	-11.3667
▁मानत	-11.3668
सारखं	-11.367
स्कर	-11.3671
▁कंपनीच्या	-11.3671
▁63	-11.3673
▁सर्वांनाच	-11.3674
शिवसेना	-11.3674
▁वै	-11.3674
▁बुड	-11.3677
▁shop	-11.3679
▁outcome	-11.368
▁trained	-11.3687
▁भाजपाला	-11.3687
▁चीनमध्ये	-11.3687
ku	-11.3689
▁कार्	-11.3691
ball	-11.3695
▁जीवनावर	-11.3698
ल्याचा	-11.3699
▁योजनेत	-11.37
ition	-11.3701
ंपासून	-11.3709
▁depends	-11.3712
लू	-11.3714
rank	-11.3716
▁इस्राएली	-11.3719
▁58	-11.3719
▁Kat	-11.3723
▁format	-11.3725
▁यांच्याकडून	-11.3727
▁मुलीने	-11.3731
▁net	-11.3731
▁कर्मचाऱ्यां	-11.3731
▁टू	-11.374
▁पटकाव	-11.3743
▁यहोवावर	-11.3745
▁condemn	-11.3748
▁गणित	-11.3749
chan	-11.3749
▁पत	-11.375
▁wear	-11.3758
▁balance	-11.3759
▁oppose	-11.3759
▁realise	-11.376
▁प्रामाणिक	-11.3762
ाईन	-11.3763
▁church	-11.3765
▁rock	-11.3765
▁Come	-11.3766
▁loyal	-11.3767
▁Organisation	-11.3767
▁Shroff	-11.3767
▁Sidhu	-11.3767
▁Sonakshi	-11.3767
▁easier	-11.3767
▁experiment	-11.3767
▁length	-11.3767
▁veteran	-11.3767
▁इरफान	-11.3767
▁उघडकीस	-11.3767
▁कोट्यवधी	-11.3767
▁झपाट्यान	-11.3767
▁प्रौढ	-11.3767
▁रिसर्च	-11.3767
▁संतप्त	-11.3767
▁सक्रीय	-11.3767
▁अरेबिया	-11.3767
▁ओलांड	-11.3767
▁पिंपरी	-11.3767
▁मल्होत्रा	-11.3767
▁संवेदनशील	-11.3767
▁संस्थापक	-11.3767
▁अतिवृष्टी	-11.3767
▁विनय	-11.3767
▁cleanliness	-11.3768
▁घेईल	-11.3768
▁condole	-11.3768
▁तेलगू	-11.3768
▁legislative	-11.3768
▁invitation	-11.3768
▁Grand	-11.3768
▁३७	-11.3769
▁चौकार	-11.3769
▁प्रणव	-11.3769
▁तज्ञ	-11.3769
▁fever	-11.3769
▁Book	-11.3769
▁Rajendra	-11.377
▁जयपूर	-11.377
▁सगळीकडे	-11.377
▁2.5	-11.3771
▁Rather	-11.3772
▁jam	-11.3772
▁reserved	-11.3773
▁खच	-11.3775
▁कर्मचाऱ्यांना	-11.378
▁दर्शवली	-11.378
▁बालक	-11.378
▁electric	-11.378
▁स्टार्ट	-11.3781
▁अयोध्येत	-11.3783
▁Anti	-11.3784
▁Noah	-11.3786
▁characters	-11.3787
ध्द	-11.3791
▁Behold	-11.3791
▁वाय	-11.3791
▁rumours	-11.3791
▁स्थानकात	-11.3793
▁शतकात	-11.3794
je	-11.3796
▁yes	-11.3799
▁चेंडूत	-11.3799
▁हर्ष	-11.38
▁Tests	-11.3802
ाधिकारी	-11.3807
▁मानक	-11.3809
▁Surat	-11.3813
rude	-11.3816
ास्पद	-11.3817
▁मंदिराच्या	-11.3819
▁कराराला	-11.382
▁wasn	-11.3821
▁purchase	-11.3824
▁कुटुंबियां	-11.3825
▁jawans	-11.3828
70	-11.3829
▁सर्वांसाठी	-11.3831
▁Swa	-11.3832
▁तेज	-11.3835
ati	-11.3838
▁factors	-11.3839
▁वाया	-11.3842
▁bound	-11.3845
Patil	-11.3847
▁प्रवृत्ती	-11.3848
▁Real	-11.3849
▁adult	-11.385
▁pages	-11.3851
▁पोच	-11.3852
▁कण	-11.3854
▁th	-11.3856
▁रीत	-11.387
ियो	-11.3871
long	-11.3873
▁चीनने	-11.3874
▁घेतलेला	-11.3875
oc	-11.3875
▁दात	-11.388
▁महोत्सव	-11.3882
▁devices	-11.3886
▁धाड	-11.3888
▁पां	-11.3888
▁locations	-11.3896
▁gun	-11.3897
▁hits	-11.39
▁चांगलेच	-11.3901
▁print	-11.3904
gra	-11.3905
वल्या	-11.3909
▁thanks	-11.3909
▁कोम	-11.3912
BA	-11.3915
ase	-11.3916
▁delay	-11.3923
▁Gen	-11.3923
▁लगेचच	-11.3925
सीआय	-11.393
ांसमोर	-11.3931
यांना	-11.3934
▁बनावट	-11.3934
▁शिकत	-11.3934
▁Thanks	-11.3936
▁उडव	-11.3936
▁खेड	-11.3937
PF	-11.394
volving	-11.394
▁Academy	-11.394
▁Bhuvneshwar	-11.394
▁Dhananjay	-11.394
▁expenditure	-11.394
▁holiday	-11.394
▁sacred	-11.394
▁smooth	-11.394
▁अकादमी	-11.394
▁आझाद	-11.394
▁एक्सप्रेस	-11.394
▁जान्हवी	-11.394
▁रवानगी	-11.394
▁संसाधन	-11.394
▁हेलिकॉप्टर	-11.394
▁Advisor	-11.394
▁Sector	-11.394
▁मजकूर	-11.394
▁raising	-11.394
▁अत्यावश्यक	-11.394
▁mutual	-11.394
▁vast	-11.394
▁वर्तन	-11.394
▁portray	-11.394
▁Aaron	-11.394
▁चहल	-11.394
▁properties	-11.394
▁governance	-11.394
▁manage	-11.394
▁स्विकार	-11.394
▁ढवळ	-11.394
▁स्कूल	-11.394
▁नितीशकुमार	-11.394
▁poet	-11.394
▁Chahal	-11.394
▁सूची	-11.394
▁बचावकार्य	-11.394
▁motion	-11.3941
▁blow	-11.3941
▁brave	-11.3941
ांद्वारे	-11.3942
▁Music	-11.3942
▁metres	-11.3943
▁रहाणे	-11.3943
▁कितीतरी	-11.3943
▁आशे	-11.3946
▁regime	-11.3947
▁निर्माते	-11.3947
▁बाबेल	-11.3947
▁classes	-11.3948
▁राज्यांत	-11.395
▁नोंदवण्या	-11.395
32	-11.3952
▁widely	-11.3953
विध	-11.3953
▁click	-11.3954
Is	-11.3955
▁दोघांमध्ये	-11.3956
ret	-11.3957
▁jointly	-11.3959
▁बॉम्ब	-11.396
▁significantly	-11.396
▁load	-11.3961
▁लगावला	-11.3961
▁lifted	-11.3961
▁चुकीचा	-11.3963
▁असण्याची	-11.3963
ांवरून	-11.3964
▁घरच्या	-11.3965
▁दिसला	-11.3966
▁आणून	-11.3967
▁पर्वत	-11.3967
▁तपासणीसाठी	-11.3969
▁represented	-11.3969
▁लेखा	-11.397
बाबा	-11.397
ाहून	-11.3972
▁मुलांची	-11.3973
▁Rio	-11.3973
▁पाट	-11.3975
▁री	-11.3976
▁तरुणांना	-11.3976
▁15,	-11.3979
▁वाचून	-11.3987
▁रड	-11.3987
▁प्रवाह	-11.3988
▁Satya	-11.3988
▁walked	-11.3991
▁त्यां	-11.3991
शीर	-11.3997
▁inspector	-11.3997
टिक	-11.3997
▁differences	-11.4
बेल	-11.4
▁चित्रपटांमध्ये	-11.4003
▁अरे	-11.4007
▁Puri	-11.4008
▁belong	-11.401
▁arrives	-11.4011
▁stones	-11.4012
त्त्व	-11.4012
लाइन	-11.4014
▁दगडफेक	-11.4015
▁पसरले	-11.4016
▁मुलीवर	-11.402
down	-11.4021
▁van	-11.4022
▁आजी	-11.4023
rang	-11.4025
▁दिल	-11.4026
▁आणणार	-11.4027
▁reform	-11.4029
▁loves	-11.403
▁''	-11.4033
▁समर्थ	-11.4034
बाज	-11.4034
▁आल्यावर	-11.4034
▁questioning	-11.4036
FA	-11.4038
▁शेतात	-11.4039
ाट	-11.4044
66	-11.4044
▁डाव्या	-11.4047
▁1000	-11.4049
▁लोकांस	-11.4057
ंमधील	-11.4057
▁आस	-11.4057
ked	-11.4063
टिंग	-11.4068
▁अज	-11.4069
▁स्वतःचे	-11.407
लय	-11.407
▁invest	-11.407
▁ठर	-11.407
▁mon	-11.4074
RO	-11.4077
▁भिंती	-11.4078
ाह	-11.4079
▁Heat	-11.408
▁listed	-11.4082
▁Sai	-11.4085
▁लाज	-11.4086
▁मंत्रिमंडळात	-11.4088
वास	-11.4089
No	-11.4093
▁काँग्रेसचा	-11.4094
▁लोह	-11.41
▁अजिंक्य	-11.4103
▁भागांत	-11.4105
थन	-11.4106
▁पोर्टल	-11.411
▁सप	-11.4113
▁षटकां	-11.4113
▁Class	-11.4113
▁साथी	-11.4113
▁इच्छे	-11.4115
जार	-11.4115
▁wild	-11.4115
▁Amazon	-11.4115
▁Church	-11.4115
▁Mehboob	-11.4115
▁Rishabh	-11.4115
▁clarified	-11.4115
▁democratic	-11.4115
▁imprisonment	-11.4115
▁rejoice	-11.4115
▁replied	-11.4115
▁अडथळे	-11.4115
▁निरनिराळ	-11.4115
▁निराकरण	-11.4115
▁भुजबळ	-11.4115
▁remote	-11.4115
▁ग्रुप	-11.4115
▁पर्रिकर	-11.4115
▁अभिनेत्या	-11.4115
▁Jawahar	-11.4115
▁venture	-11.4115
▁हरकत	-11.4115
▁Tripura	-11.4115
▁imagine	-11.4116
▁Democratic	-11.4116
▁Firefox	-11.4116
▁Jonas	-11.4116
▁eastern	-11.4116
▁एवढ्या	-11.4116
▁कॅनडा	-11.4116
▁भावनिक	-11.4116
▁bought	-11.4116
▁गाणं	-11.4116
▁Nick	-11.4117
▁धन्य	-11.4117
िष्ट	-11.4117
▁नसल्यामुळे	-11.4117
▁Saina	-11.4117
▁घेणाऱ्या	-11.4117
▁मांस	-11.4118
▁जबर	-11.4118
▁राखण्या	-11.4118
▁शुभ	-11.4119
▁खऱ्या	-11.4119
▁2009	-11.4119
▁withdrawn	-11.412
▁Green	-11.412
▁आळा	-11.412
▁factory	-11.4121
▁consideration	-11.4121
▁करण्यापूर्वी	-11.4122
▁unveiled	-11.4122
▁approximately	-11.4122
▁soft	-11.4124
▁saving	-11.4124
▁participants	-11.4124
▁surrounding	-11.4126
▁turns	-11.4126
तेत	-11.4127
▁बांधवांना	-11.4128
▁hill	-11.4128
▁ऐका	-11.4129
▁उचलली	-11.413
▁advanced	-11.413
▁bow	-11.4132
पन	-11.4135
▁भात	-11.4136
घर	-11.4136
▁भगिनींनो	-11.4138
▁pitch	-11.4139
▁reacted	-11.4139
▁संघाची	-11.4139
▁ऑल	-11.414
▁Khanna	-11.4146
▁अट	-11.4148
▁साठव	-11.4148
▁काढू	-11.415
▁Bad	-11.4152
▁कांदा	-11.4152
▁spiritually	-11.4152
▁कायद्यात	-11.4161
▁नागरिकांचा	-11.4162
▁नोट	-11.4162
▁योजनेचा	-11.4165
▁विरोधक	-11.4165
▁माणसां	-11.4165
Re	-11.4166
▁गुन्ह्यां	-11.4167
Ch	-11.4167
्हा	-11.4167
लिंग	-11.4168
▁बायबलचा	-11.4168
▁suggestions	-11.4169
▁इतकेच	-11.4172
स्त्र	-11.4174
▁समाधानी	-11.4176
▁सरकारकडे	-11.4179
▁रेल्वेने	-11.418
▁जगाच्या	-11.4182
ईस	-11.4183
▁हिंदुस्थानी	-11.4184
▁कामाच्या	-11.4185
▁बोलला	-11.4188
▁नील	-11.419
igh	-11.4192
▁टिकव	-11.4192
▁USA	-11.4193
▁पास	-11.4195
▁Ya	-11.4195
जू	-11.4196
▁विद्यापीठात	-11.4197
▁kin	-11.4198
▁requirements	-11.4199
कर्णधार	-11.42
▁courses	-11.4201
▁अगोदर	-11.4202
▁belief	-11.4205
▁passenger	-11.4206
▁founder	-11.4207
▁lesson	-11.421
▁सर्वांची	-11.4212
▁Rani	-11.4213
▁interact	-11.4217
▁Van	-11.4219
▁speaks	-11.4219
▁बरं	-11.4219
▁Comp	-11.422
▁lots	-11.4222
▁acts	-11.4222
▁फर	-11.4223
DM	-11.4223
▁spin	-11.4224
▁सातत्य	-11.4229
▁भान	-11.4234
▁सोबतच	-11.4236
▁खोली	-11.4236
▁परम	-11.4237
47	-11.4238
▁टक्क्यांन	-11.4242
माग	-11.4243
▁sum	-11.4244
gh	-11.4248
98	-11.4248
▁मुख्यमंत्रीपद	-11.4251
▁सहमत	-11.4253
84	-11.4256
▁मैदान	-11.4259
स्ता	-11.426
▁visits	-11.4264
शर	-11.4264
▁बोट	-11.4266
So	-11.427
▁aspect	-11.4274
▁पडण्या	-11.4278
ोरा	-11.4279
▁seeds	-11.428
das	-11.4281
▁पाल	-11.4282
▁घुस	-11.4283
▁विमाने	-11.4285
▁urge	-11.4285
gate	-11.4288
mat	-11.429
▁Vinay	-11.4293
▁ऑटो	-11.4294
▁सेन्सेक्स	-11.4294
responsibilities	-11.4294
▁Owaisi	-11.4294
▁Schedule	-11.4294
▁Vardhan	-11.4294
▁corporation	-11.4294
▁evident	-11.4294
▁inconvenience	-11.4294
▁industries	-11.4294
▁pregnant	-11.4294
▁widow	-11.4294
▁आकर्षक	-11.4294
▁दरवाजा	-11.4294
▁नियामक	-11.4294
▁विचारसरणी	-11.4294
▁शाहरूख	-11.4294
▁कोळसा	-11.4294
▁Address	-11.4294
▁admission	-11.4294
▁महामारी	-11.4294
▁लिहिलं	-11.4294
▁कारणीभूत	-11.4294
▁पॅकेज	-11.4294
▁Indeed	-11.4294
▁Valley	-11.4294
▁आदरांजली	-11.4294
▁खात्मा	-11.4294
▁electoral	-11.4294
▁भविष्यवाणी	-11.4294
▁outrage	-11.4294
▁तावडे	-11.4294
▁समभाग	-11.4294
▁देईन	-11.4294
▁चौथा	-11.4294
▁जीवनशैली	-11.4294
▁ध्यान	-11.4294
▁गैर	-11.4294
▁टेबल	-11.4294
▁बिकट	-11.4294
▁मजूर	-11.4294
▁divine	-11.4294
▁gradually	-11.4295
▁rebel	-11.4295
▁northern	-11.4295
▁तथा	-11.4295
▁राहिलो	-11.4295
▁missile	-11.4295
▁विधी	-11.4296
रेन	-11.4296
▁काळजीपूर्वक	-11.4296
▁मद्य	-11.4296
▁untoward	-11.4297
▁उपचारादरम्यान	-11.4297
▁त्याचवेळी	-11.4297
▁सबंध	-11.4297
▁शिकू	-11.4297
▁पाहुणे	-11.4298
▁wounded	-11.4298
▁Parliamentary	-11.4298
▁wage	-11.4298
▁continuing	-11.4298
▁72	-11.4299
▁west	-11.4299
▁बदलून	-11.4299
▁2003	-11.43
▁metro	-11.4301
▁assignment	-11.4301
▁code	-11.4301
▁practices	-11.4301
▁Urban	-11.4303
▁replace	-11.4304
▁मिळण्याची	-11.4304
▁Times	-11.4304
▁प्रयत्नशील	-11.4305
▁obtained	-11.4306
▁फारसे	-11.4306
▁गाजव	-11.4306
▁शकली	-11.4306
डिया	-11.4309
▁टॅब	-11.431
▁culprits	-11.4312
्टी	-11.4313
▁अल्	-11.4314
▁asks	-11.4315
col	-11.4315
▁धोक्यात	-11.4316
▁plants	-11.4317
िंदर	-11.4318
andeep	-11.4318
▁critically	-11.4318
sar	-11.432
▁झालंय	-11.4321
hari	-11.4321
▁larger	-11.4324
▁ease	-11.4325
▁Indo	-11.4326
▁वॉ	-11.4327
▁crossed	-11.4327
▁बाह्य	-11.4331
▁badly	-11.4333
▁मेळ	-11.4333
▁बांधणी	-11.4333
▁Oil	-11.4333
▁graduate	-11.4334
▁Jal	-11.4336
▁ob	-11.4338
ँड	-11.434
▁अ‍ॅप	-11.434
त्रा	-11.4346
▁शिकवण	-11.4348
▁सद	-11.4348
▁99	-11.4356
▁बँकेचे	-11.4358
▁इन्स्टाग्राम	-11.437
ाइन	-11.4371
गती	-11.4371
▁रूपयां	-11.4374
▁पुरेश	-11.4376
ez	-11.4377
▁85	-11.4377
प्रसिद्ध	-11.4383
take	-11.4383
▁Min	-11.4385
▁pilot	-11.4386
mir	-11.4386
केंद्र	-11.4387
▁hotel	-11.4388
▁हाताळ	-11.4389
▁Right	-11.4389
युष	-11.4389
▁Khans	-11.4391
ाशिवाय	-11.4392
▁अना	-11.4393
▁स्वीकारले	-11.4393
▁Jas	-11.44
▁वापरली	-11.44
▁politician	-11.4401
▁आघाडीच्या	-11.4404
▁एकाचा	-11.4405
▁फा	-11.4409
▁टप्प्या	-11.441
▁प्रश्नावर	-11.4414
▁वादळ	-11.4415
IA	-11.4416
हशा	-11.4424
▁fired	-11.4425
▁Ash	-11.4425
ट्री	-11.4426
▁खत	-11.4427
▁प्रेक्षक	-11.4429
शू	-11.4429
▁Pi	-11.443
▁Hari	-11.4434
टर्न	-11.4438
सीए	-11.4442
जीत	-11.4446
▁वाऱ्या	-11.4452
▁वेगळं	-11.4454
▁दौ	-11.4455
pping	-11.446
▁ठरत	-11.4466
▁apologise	-11.4467
▁extensive	-11.4468
▁rare	-11.4469
▁endure	-11.4471
hara	-11.4471
कला	-11.4472
▁except	-11.4474
▁religions	-11.4474
▁दृष्टीकोन	-11.4474
▁Jam	-11.4475
bhushan	-11.4475
▁Black	-11.4476
▁Chaudhary	-11.4476
▁Disaster	-11.4476
▁ICICI	-11.4476
▁Jodhpur	-11.4476
▁Konkan	-11.4476
▁NDRF	-11.4476
▁Obama	-11.4476
▁Scriptural	-11.4476
▁Society	-11.4476
▁conclusion	-11.4476
▁destination	-11.4476
▁fiscal	-11.4476
▁interrogation	-11.4476
▁yoga	-11.4476
▁अद्ययावत	-11.4476
▁अनिवार्य	-11.4476
▁उपनिरीक्षक	-11.4476
▁घरगुती	-11.4476
▁चाहते	-11.4476
▁तालुका	-11.4476
▁दुबई	-11.4476
▁दोघं	-11.4476
▁नव्हतो	-11.4476
▁पाठलाग	-11.4476
▁शिक्कामोर्तब	-11.4476
▁शिल्लक	-11.4476
▁सोनाक्षी	-11.4476
▁2017-18	-11.4476
▁resort	-11.4476
▁शौचालय	-11.4476
▁वस्तुस्थिती	-11.4476
▁Labour	-11.4476
▁dedication	-11.4476
▁मणिपूर	-11.4476
▁categories	-11.4476
▁नोटाबंदी	-11.4476
▁राजवट	-11.4476
▁कुस्ती	-11.4476
▁tennis	-11.4476
▁विचारत	-11.4476
▁empty	-11.4476
▁Help	-11.4476
▁छाती	-11.4477
▁Rishi	-11.4477
▁संपले	-11.4477
▁illness	-11.4477
▁लागलो	-11.4477
▁करिअर	-11.4478
▁बोललो	-11.4478
▁attendance	-11.4478
▁देशांतर्गत	-11.4478
▁अशाप्रकारे	-11.4479
धर	-11.4479
▁सगळा	-11.4479
▁राणा	-11.4479
▁सिद्धांत	-11.448
bhai	-11.4481
▁उकळ	-11.4482
▁डाग	-11.4483
▁यायला	-11.4483
▁वेळेवर	-11.4484
▁पुनर्	-11.4485
▁नो	-11.4486
▁collapsed	-11.4487
ियम	-11.4491
▁अशाप्रकारच	-11.4491
▁slowly	-11.4493
▁whats	-11.4494
▁शहरी	-11.4495
rea	-11.4496
▁लोकांशी	-11.4497
द्या	-11.4498
▁चलन	-11.4499
▁इस्रो	-11.45
▁जंगल	-11.4502
▁ha	-11.4505
▁माघारी	-11.4507
▁चित्रपटाचं	-11.4508
▁gate	-11.4509
kal	-11.4509
ाइल	-11.4513
▁Member	-11.4515
वर्त	-11.4518
▁आरोग्यासाठी	-11.4521
▁marked	-11.4528
ple	-11.4532
▁संपत	-11.4536
▁घाट	-11.454
▁संग्रह	-11.4542
▁remembered	-11.4543
RS	-11.4544
▁वेल	-11.4546
दिवस	-11.4548
▁भडक	-11.4548
▁कमल	-11.4549
head	-11.455
▁येई	-11.4551
ंदर	-11.4551
▁परमेश्वराचा	-11.4553
▁worker	-11.4554
्सवर	-11.4555
▁sins	-11.4558
▁brand	-11.4559
▁पसंत	-11.456
▁formal	-11.4561
▁functioning	-11.4564
▁टक्क्यां	-11.4565
Pune	-11.4568
▁करतोय	-11.4568
election	-11.4569
▁बोला	-11.4571
▁गीत	-11.4578
▁याचं	-11.4579
▁Play	-11.4579
▁hosts	-11.4581
▁Yu	-11.4581
▁राज्याची	-11.4586
▁Bri	-11.4586
तार	-11.4588
▁stepp	-11.459
▁मोर	-11.4592
▁miss	-11.4593
▁परतले	-11.4596
▁समुद्रा	-11.4596
▁आम्हा	-11.4602
▁legs	-11.4602
▁लावत	-11.4604
keeper	-11.4606
▁Aam	-11.4609
▁se	-11.4612
▁बंगाली	-11.4612
▁भूकंप	-11.4615
ंतर	-11.4616
▁विचारणा	-11.4617
▁दुकान	-11.4618
कांत	-11.462
पल	-11.4624
▁शेर	-11.4625
ough	-11.4626
▁AB	-11.4629
ification	-11.463
▁u	-11.4631
▁सोपा	-11.4631
▁platforms	-11.4632
▁burn	-11.4637
▁constitution	-11.4638
▁धोक्या	-11.4638
▁कमालीच	-11.464
▁dress	-11.4643
▁delight	-11.4644
▁pursue	-11.4652
ier	-11.4654
▁झालेत	-11.4656
▁350	-11.4656
▁Mag	-11.4657
▁पाठी	-11.466
▁झेप	-11.466
▁Company	-11.4661
▁Girl	-11.4661
▁Jeremiah	-11.4661
▁Ocean	-11.4661
▁Sangli	-11.4661
▁Thorat	-11.4661
▁Vikram	-11.4661
▁cautious	-11.4661
▁penalty	-11.4661
▁salary	-11.4661
▁stolen	-11.4661
▁अमरावती	-11.4661
▁अल्पसंख्याक	-11.4661
▁चक्रवर्ती	-11.4661
▁परिश्रम	-11.4661
▁पादुकोण	-11.4661
▁मतमोजणी	-11.4661
▁मल्याळम	-11.4661
▁रत्नागिरी	-11.4661
▁Sensex	-11.4661
▁पाचारण	-11.4661
▁घातक	-11.4661
▁Corinthians	-11.4661
▁प्रीति	-11.4661
▁Agency	-11.4661
▁गरजेचं	-11.4661
▁Sheikh	-11.4661
▁तामिळ	-11.4661
▁distribution	-11.4661
▁attract	-11.4661
▁sky	-11.4661
▁सायकल	-11.4661
▁Know	-11.4661
▁Mandir	-11.4662
▁इंडियाने	-11.4662
▁interim	-11.4662
▁सानिया	-11.4662
▁नसल्याचं	-11.4662
▁committing	-11.4663
▁निभाव	-11.4663
▁मृत्यु	-11.4663
▁assign	-11.4664
▁popularity	-11.4665
▁काढता	-11.4665
▁बेत	-11.4665
▁टाळण्यासाठी	-11.4666
▁2004	-11.4666
▁पारंपरिक	-11.4667
▁दुर्दैवी	-11.4667
▁तिनं	-11.4667
▁portion	-11.4669
▁passes	-11.4669
▁बाळा	-11.4671
▁झटका	-11.4671
▁खुल्या	-11.4672
ndi	-11.4672
▁concluded	-11.4672
,’’	-11.4672
▁recalled	-11.4675
▁घेतल्यानंतर	-11.4675
▁निश्‍चितच	-11.4677
▁खाण	-11.4677
▁मनोरंजन	-11.4678
▁armed	-11.4678
▁रण	-11.4679
lt	-11.4679
▁Live	-11.4681
▁गुन्हेगारी	-11.4682
▁प्रभावित	-11.4683
▁restrictions	-11.4684
▁knowing	-11.4684
▁धुरा	-11.4684
▁राहण्या	-11.4684
▁साठा	-11.4684
▁एकमत	-11.4685
ians	-11.4689
▁जयंतीनिमित्त	-11.4691
▁None	-11.4691
▁वेध	-11.4693
▁गज	-11.4694
इन	-11.4695
▁रात्र	-11.4696
▁वडिलांना	-11.4699
▁प्रस्तावाला	-11.47
▁समृद्धी	-11.47
ईल	-11.4701
▁प्रताप	-11.4701
▁hat	-11.4701
▁57	-11.4702
▁हार	-11.4707
SL	-11.4707
▁विषयी	-11.4707
▁पीएम	-11.4708
▁सत्तेवर	-11.4709
▁legislators	-11.471
▁IND	-11.4711
▁signing	-11.4711
▁बाळगू	-11.4712
▁भोग	-11.4714
▁देशांत	-11.4715
DS	-11.4719
▁map	-11.4722
रुप	-11.4724
▁पाण्याचे	-11.4725
वलं	-11.4726
▁प्रदेशमध्ये	-11.4728
▁पसर	-11.4728
▁वेळेस	-11.4734
▁cricketers	-11.4736
▁Kam	-11.4738
▁sport	-11.4738
irav	-11.474
▁दिसतात	-11.4743
▁waters	-11.4743
▁जिंकत	-11.4743
▁पेश	-11.4747
व्हि	-11.4748
▁minds	-11.4748
48	-11.4748
लेख	-11.4749
▁owned	-11.4749
▁Care	-11.4754
स्थळ	-11.4756
डिझेल	-11.4756
SE	-11.4756
When	-11.4756
was	-11.4758
▁Picture	-11.476
▁objective	-11.4761
▁requirement	-11.4762
some	-11.4762
▁यापेक्षा	-11.4764
mark	-11.4765
ण्याकरता	-11.4769
▁कोणाच्या	-11.4772
▁उडी	-11.4774
▁बीड	-11.4776
मधला	-11.4779
▁returning	-11.4779
▁दुखापती	-11.4786
▁घेते	-11.4788
▁तरतुदी	-11.4789
▁lands	-11.4789
▁Banks	-11.4791
▁आईवडिलां	-11.4793
ified	-11.4795
My	-11.4801
नाम	-11.4804
ोस	-11.4813
▁व्याख्या	-11.4817
test	-11.482
aff	-11.4821
चीन	-11.4824
▁आवडी	-11.4824
मती	-11.4826
▁inspiration	-11.4826
▁सिम	-11.4827
▁repair	-11.4832
▁चु	-11.4835
▁colours	-11.4835
▁५००	-11.4836
▁जैव	-11.4839
▁व्याप	-11.4839
▁teachings	-11.4844
▁राज्यांना	-11.4846
पथ	-11.4846
▁sacrifices	-11.4847
▁मूर्ख	-11.4849
▁immun	-11.4849
▁mass	-11.4849
▁सूक्ष्म	-11.4849
▁Shukla	-11.485
▁valuable	-11.485
▁Aadmi	-11.485
▁Allahabad	-11.485
▁Consequently	-11.485
▁History	-11.485
▁Perhaps	-11.485
▁Siddiqui	-11.485
▁beauty	-11.485
▁cycle	-11.485
▁destruction	-11.485
▁disperse	-11.485
▁pretty	-11.485
▁qualify	-11.485
▁quarantine	-11.485
▁relevant	-11.485
▁satisfaction	-11.485
▁कंत्राट	-11.485
▁ताबडतोब	-11.485
▁तीमथ्य	-11.485
▁निलंबित	-11.485
▁विश्लेषण	-11.485
▁वॉशिंग्टन	-11.485
▁शमुवेल	-11.485
▁संभाव्य	-11.485
▁स्पर्धक	-11.485
▁हृतिक	-11.485
▁Vidya	-11.485
▁ओबामा	-11.485
▁ट्वेन्टी	-11.485
▁मुद्यावर	-11.485
▁boil	-11.485
▁पासवर्ड	-11.485
▁शस्त्रक्रिया	-11.485
▁Programme	-11.485
▁पाणीपुरवठा	-11.485
▁external	-11.485
▁prospect	-11.485
▁Things	-11.485
▁आईवडील	-11.4851
▁विचित्र	-11.4851
▁clothes	-11.4851
▁मार्केट	-11.4851
▁Chandraba	-11.4851
▁supposed	-11.4851
▁अथ	-11.4851
▁कोणीतरी	-11.4852
▁२०२०	-11.4852
▁प्रकट	-11.4852
▁chest	-11.4852
▁आढळतात	-11.4853
▁Eight	-11.4853
▁रोमकर	-11.4853
▁visitors	-11.4854
table	-11.4854
▁Market	-11.4854
▁कदर	-11.4855
▁आरोपपत्र	-11.4855
▁composed	-11.4855
▁acceptable	-11.4855
▁डोक्याला	-11.4856
▁उंचाव	-11.4856
▁संकटात	-11.4856
▁कोट	-11.4857
▁शलमोन	-11.4858
▁sanctioned	-11.486
▁ठिकठिकाण	-11.486
▁tri	-11.4861
ाध	-11.4863
▁संशोधक	-11.4864
▁whereas	-11.4865
12	-11.4868
▁निर्माता	-11.4869
▁delayed	-11.4869
▁Jain	-11.4869
▁रज	-11.487
▁AIIMS	-11.4872
लंय	-11.4873
▁Based	-11.4874
▁Dutta	-11.4876
▁crying	-11.4878
▁भाजपाच्या	-11.4878
▁br	-11.4878
िअर	-11.4879
OP	-11.488
Fi	-11.488
▁fulfill	-11.4882
-21	-11.4886
सून	-11.4886
▁कशासाठी	-11.4888
ाव्या	-11.4892
▁800	-11.4893
ांविरुद्ध	-11.4894
▁दोघांच्या	-11.4898
▁artist	-11.49
▁सरकारनं	-11.4908
▁धाडस	-11.4909
▁लावा	-11.4912
▁ठेवण्यास	-11.4912
महा	-11.4913
eb	-11.4914
▁engines	-11.4918
▁बाय	-11.4918
▁Gun	-11.4919
▁tourists	-11.492
▁सतर्क	-11.492
▁उद्भव	-11.492
▁investments	-11.4927
▁दाखवण्या	-11.4929
▁letters	-11.493
▁liked	-11.4931
▁mothers	-11.4932
ल्ट	-11.4934
▁दण	-11.4939
▁considering	-11.4941
▁त्याच्याकडून	-11.4941
▁69	-11.4942
▁अश	-11.4945
पाय	-11.4954
▁winner	-11.4956
▁product	-11.4956
लाईन	-11.4957
ese	-11.4958
owing	-11.4958
किल	-11.4961
▁रू	-11.4965
▁9,	-11.4968
ching	-11.4969
ारे	-11.497
▁मनन	-11.4974
▁सां	-11.4974
▁समर्थक	-11.4974
▁तप	-11.4975
▁दाद	-11.4975
▁राजकारणी	-11.4976
▁होताच	-11.4976
▁उपयोगी	-11.4979
▁अर्धा	-11.4984
▁क्रि	-11.4989
▁जिंक	-11.4991
▁फसव	-11.4993
▁लव	-11.4994
▁guests	-11.4994
चित्र	-11.4995
▁एम्स	-11.4998
ंविषयी	-11.4998
▁Rajan	-11.5
For	-11.5001
▁hopes	-11.5003
▁Films	-11.5008
▁Command	-11.501
▁गि	-11.501
▁12:	-11.5017
▁नाक	-11.5017
▁विद्यापीठाच्या	-11.5017
ino	-11.5018
▁arm	-11.5019
▁कोणीच	-11.5021
▁रांगा	-11.5024
▁adopt	-11.5024
▁Select	-11.5025
▁उरले	-11.5025
सात	-11.5026
CD	-11.5027
▁पाकिस्तानमध्ये	-11.5029
21	-11.5029
आयएस	-11.5031
▁प्रकरणे	-11.5031
▁नाहीय	-11.5031
▁विदेश	-11.5033
▁describe	-11.5033
लँड	-11.5034
▁possess	-11.5035
▁अर्थसंकल्पात	-11.5037
mas	-11.504
▁generations	-11.5041
▁BRICS	-11.5042
▁Celsius	-11.5042
▁Chakraborty	-11.5042
▁Palghar	-11.5042
▁Supriya	-11.5042
▁Washington	-11.5042
▁absence	-11.5042
▁guarantee	-11.5042
▁liquor	-11.5042
▁ordinary	-11.5042
▁salvation	-11.5042
▁stadium	-11.5042
▁तिकिट	-11.5042
▁भक्कम	-11.5042
▁विस्तृत	-11.5042
▁श्रॉफ	-11.5042
▁सतीश	-11.5042
▁सर्वेसर्वा	-11.5042
▁Collector	-11.5042
▁editor	-11.5042
▁आश्‍चर्य	-11.5042
▁युनायटेड	-11.5042
▁चमचा	-11.5042
▁प्रतीक्षा	-11.5042
▁tongue	-11.5042
▁विद्यार्थिनी	-11.5042
▁Robert	-11.5042
▁glad	-11.5042
▁nabbed	-11.5042
▁प्रयोगशाळा	-11.5042
▁रिझर्व्ह	-11.5042
▁त्रिपुरा	-11.5042
▁Otherwise	-11.5042
▁संवर्धन	-11.5042
▁२०१३	-11.5042
▁acid	-11.5042
▁Japanese	-11.5042
▁motor	-11.5042
▁रशियन	-11.5042
▁जळगाव	-11.5043
▁Mahajan	-11.5043
▁काळे	-11.5043
▁Shashi	-11.5043
▁घोषणाबाजी	-11.5043
▁सर्वसाधारण	-11.5044
▁पालकमंत्री	-11.5044
▁कन्	-11.5044
▁अन्यथा	-11.5044
▁anymore	-11.5045
▁आगमन	-11.5046
▁सूट	-11.5046
▁साडे	-11.5046
▁UPA	-11.5047
षभ	-11.5048
▁करण्याचं	-11.5049
▁Gauri	-11.505
▁strive	-11.505
▁presidential	-11.5051
▁Rail	-11.5052
▁initially	-11.5052
▁कारणांमुळे	-11.5052
▁जाणारा	-11.5053
▁बुक	-11.5053
▁generate	-11.5055
▁enhance	-11.5056
ueen	-11.5059
▁स्पर्श	-11.5059
▁तोंडावर	-11.5059
▁Being	-11.5059
▁closer	-11.5063
▁motive	-11.5063
▁दोघी	-11.5063
▁faster	-11.5064
▁investors	-11.5064
▁जिंकला	-11.5064
▁नाहीतर	-11.5064
▁mixed	-11.5065
▁अनेकजण	-11.5069
▁meat	-11.507
▁पाळत	-11.5071
▁सभेला	-11.5071
▁Whos	-11.5071
दिन	-11.5072
▁प्रस्तावित	-11.5073
▁संस्थेने	-11.5075
▁planet	-11.5078
▁अमृता	-11.5079
प्रिय	-11.508
▁बंधन	-11.508
Co	-11.5083
▁साई	-11.5084
▁शाळां	-11.5085
▁नित्य	-11.5085
▁काहींनी	-11.5087
▁cow	-11.509
▁वाटली	-11.5092
▁जोडीने	-11.5097
▁सापडत	-11.5099
काही	-11.51
▁विजे	-11.51
▁टाकत	-11.5102
▁बनवत	-11.5102
वर्ष	-11.5102
▁script	-11.5103
▁कोहलीच्या	-11.5104
▁वेळात	-11.5104
▁मंत्र	-11.5106
▁हॉल	-11.5108
▁hero	-11.5108
▁83	-11.5121
▁अं	-11.5124
गि	-11.5124
▁मोदींचे	-11.5124
▁Train	-11.5124
▁याबाबतीत	-11.5125
▁कारागृहात	-11.5126
▁6,	-11.5126
▁Part	-11.5129
▁import	-11.5129
▁शेतकऱ्यांची	-11.5129
▁कोणतीच	-11.5132
▁पोलिसांवर	-11.5134
काळात	-11.5135
िफ	-11.5135
िग	-11.5136
ाविरुद्ध	-11.5136
▁४२	-11.5138
▁गुन्हेगार	-11.5143
ग्राम	-11.5143
its	-11.5145
▁celebration	-11.5149
▁मतदारसंघा	-11.5151
▁phases	-11.5152
▁गप्प	-11.5154
कर्ता	-11.5157
▁lit	-11.516
▁हायकोर्टात	-11.516
17	-11.5166
▁करणा	-11.5174
आता	-11.5175
▁moves	-11.5176
▁मिस	-11.5179
▁ढकल	-11.518
▁आपल्यासाठी	-11.5182
ख्यात	-11.5183
Com	-11.5183
▁fulfil	-11.5184
▁मेक	-11.5185
▁अद	-11.5188
▁काढा	-11.519
▁गीता	-11.5192
▁heavens	-11.5193
श्या	-11.5196
shree	-11.5197
▁धावत	-11.52
▁Gul	-11.52
▁कसला	-11.52
▁मधे	-11.5206
▁Fr	-11.5206
▁अड	-11.5209
▁mate	-11.521
▁featur	-11.5212
▁व्यवसायात	-11.5213
▁वेड	-11.5213
▁आंदोलक	-11.5214
▁प्रक्रियेत	-11.5217
▁Hai	-11.5218
▁३४	-11.5219
▁shift	-11.522
▁finish	-11.522
पाद	-11.5225
▁divide	-11.523
▁साव	-11.5231
▁अनुच	-11.5232
पृथ्वीराज	-11.5232
maker	-11.5235
ria	-11.5236
▁स्वयं	-11.5238
▁अवैध	-11.5238
▁Venkai	-11.5238
▁Crime	-11.5238
▁Highlights	-11.5238
▁Mahindra	-11.5238
▁PDP	-11.5238
▁explanation	-11.5238
▁heritage	-11.5238
▁intervention	-11.5238
▁probably	-11.5238
▁stranded	-11.5238
▁आश्‍वासन	-11.5238
▁जयललिता	-11.5238
▁भोपाळ	-11.5238
▁मध्यवर्ती	-11.5238
▁मृत्युमुखी	-11.5238
▁युक्तिवाद	-11.5238
▁सार्वकाल	-11.5238
▁Search	-11.5238
▁narrat	-11.5238
▁अध्याय	-11.5238
▁गोविंद	-11.5238
▁IAF	-11.5238
▁mixture	-11.5238
▁नोबेल	-11.5238
▁राबविण्या	-11.5238
▁महाविकास	-11.5238
▁Staff	-11.5238
▁अधि	-11.5238
▁THE	-11.5238
▁southern	-11.5239
▁धडकेत	-11.5239
▁रामदास	-11.5239
▁अनैतिक	-11.524
▁शर्यतीत	-11.524
▁airline	-11.524
▁मित्रहो	-11.524
▁नोंदवली	-11.5241
▁परराष्ट्रमंत्री	-11.5241
▁करण्याद्वारे	-11.5241
▁bullet	-11.5242
▁संकटा	-11.5242
▁TMC	-11.5242
▁Jio	-11.5243
more	-11.5244
ोत्तर	-11.5244
▁Jayanti	-11.5245
▁शहाणपण	-11.5246
▁खेर	-11.5246
▁आईने	-11.5247
▁नवाब	-11.5247
AS	-11.5248
▁67	-11.5251
▁conclude	-11.5252
▁thereof	-11.5252
▁लढवणार	-11.5252
▁Inspector	-11.5252
▁2,000	-11.5253
▁वाढवण्यासाठी	-11.5254
▁acknowledge	-11.5256
▁singing	-11.5257
▁फंड	-11.5258
▁फारसा	-11.5258
▁interacted	-11.5258
▁खाद्य	-11.5258
▁अंधार	-11.5259
▁अधिकाऱ्याने	-11.5259
▁शाळांमध्ये	-11.5259
▁stick	-11.5259
▁वैध	-11.526
▁नाते	-11.526
ट्	-11.5261
CL	-11.5261
मिर	-11.5262
▁टाकली	-11.5263
▁म्हटलंय	-11.5264
▁supporters	-11.5264
▁काढण्या	-11.5264
ED	-11.5265
loom	-11.5267
▁7:	-11.5268
▁ग्रॅम	-11.5274
▁mighty	-11.5276
फार	-11.5276
▁breaks	-11.5277
▁stronger	-11.5277
▁Kher	-11.5279
▁dec	-11.5279
▁सर्वाना	-11.5279
▁परिषदेला	-11.5282
▁घडते	-11.5285
▁मंत्र्यांनी	-11.5286
▁Mak	-11.5288
▁फिरत	-11.5288
▁एर	-11.5289
▁वेळे	-11.5289
▁touched	-11.5289
▁sat	-11.529
▁बनण्या	-11.529
▁कोच	-11.5292
PO	-11.5293
▁apostles	-11.5297
▁साम	-11.5298
▁अडकले	-11.53
hand	-11.53
▁बोर	-11.53
▁धरला	-11.5301
▁राष्ट्रां	-11.5305
▁एकाला	-11.5311
▁विर	-11.5312
▁gram	-11.5312
TP	-11.5316
▁imitate	-11.5322
▁Deol	-11.5322
▁adds	-11.5323
▁judges	-11.5324
▁भारतावर	-11.5324
▁island	-11.5325
yard	-11.5326
61	-11.5328
▁कोसळले	-11.5329
ama	-11.5331
व्हे	-11.5332
▁subjects	-11.5333
▁दंगली	-11.5338
fo	-11.5338
▁नद्या	-11.5341
मेट	-11.5341
▁संकेतस्थळावर	-11.5343
देवी	-11.5345
पुणे	-11.5347
▁neighbours	-11.5349
dan	-11.535
ॅक्स	-11.5352
▁उत्पादने	-11.5352
▁बजाव	-11.5354
▁Bhu	-11.5356
▁66	-11.5356
▁figures	-11.5358
▁medicine	-11.536
जात	-11.5361
▁port	-11.5363
▁angels	-11.5363
▁पर्यटक	-11.5364
ending	-11.5366
▁दिल्याने	-11.537
▁चकमक	-11.5381
▁मिल	-11.5385
▁पुरी	-11.5385
▁प्रांतात	-11.5386
ताई	-11.539
रात	-11.5391
▁महासंघा	-11.5394
lashed	-11.5396
्सच्या	-11.5396
ient	-11.5398
▁organizations	-11.5399
▁Plan	-11.5402
▁झट	-11.5403
वाई	-11.5405
▁कौल	-11.5406
▁Dha	-11.5407
▁निम	-11.5408
ताच	-11.5411
▁नाग	-11.5412
कर्म	-11.5413
▁हिर	-11.5413
▁Forces	-11.5417
▁साधा	-11.5418
▁empower	-11.5419
गृहात	-11.542
▁talent	-11.542
▁render	-11.5422
▁sca	-11.5422
▁Us	-11.5423
▁वंश	-11.5424
▁गेल	-11.5426
▁Eat	-11.5428
▁operate	-11.5429
▁मेळाव्या	-11.5435
▁शरीरा	-11.5437
वण्यात	-11.5437
▁valid	-11.5437
मंत	-11.5437
▁Ge	-11.5437
▁सुप्रिय	-11.5438
▁mill	-11.5438
▁अविभाज	-11.5438
▁Gogoi	-11.5438
▁Hundred	-11.5438
▁Jayalalithaa	-11.5438
▁Nevertheless	-11.5438
▁Peace	-11.5438
▁Revenue	-11.5438
▁Support	-11.5438
▁Survey	-11.5438
▁currency	-11.5438
▁hockey	-11.5438
▁irrigation	-11.5438
▁motorcycle	-11.5438
▁patience	-11.5438
▁prestig	-11.5438
▁scenario	-11.5438
▁tremendous	-11.5438
▁vacant	-11.5438
▁कांस्यपदक	-11.5438
▁कॅन्सर	-11.5438
▁गव्हर्नर	-11.5438
▁देओल	-11.5438
▁फर्स्ट	-11.5438
▁वैवाहि	-11.5438
▁glass	-11.5438
▁एनडीआरएफ	-11.5438
▁रुपांतर	-11.5438
▁तितका	-11.5438
▁द्राक्ष	-11.5438
▁शिक्षे	-11.5438
▁inhabitants	-11.5438
▁garlic	-11.5438
▁पार्थिव	-11.5438
▁satisfied	-11.5438
▁silence	-11.5438
▁strategic	-11.5438
▁Prize	-11.5438
▁assets	-11.5438
▁राजदूत	-11.5438
▁Luke	-11.5439
▁forgive	-11.5439
▁assume	-11.5439
▁जतन	-11.5439
▁पसार	-11.5439
▁दाखवू	-11.5439
▁entertainment	-11.5439
▁tenure	-11.5439
▁भव्य	-11.544
▁2021	-11.544
▁कॉन्फरन्सिंग	-11.544
▁बाप	-11.544
▁exhibition	-11.544
▁144	-11.544
▁gap	-11.5441
▁मनः	-11.5441
▁एकत्रितपणे	-11.5441
▁wheat	-11.5441
▁frequently	-11.5441
▁Find	-11.5442
▁घराण्या	-11.5442
▁assistant	-11.5442
▁SMS	-11.5443
▁चो	-11.5443
वणे	-11.5444
▁न्यायालयानं	-11.5444
▁Till	-11.5445
▁2002	-11.5445
▁यापूर्वीच	-11.5447
▁highlighted	-11.5448
▁Solapur	-11.5448
▁retained	-11.5449
▁आयकर	-11.5451
▁monitoring	-11.5452
▁कॉफी	-11.5452
▁क्षेत्रामध्ये	-11.5453
▁नेमकं	-11.5456
प्रकारे	-11.5458
▁घुसखोरी	-11.5458
▁धरले	-11.546
▁आढळली	-11.5461
▁fly	-11.5461
ेरा	-11.5462
▁sixes	-11.5463
ोट	-11.5464
▁belonging	-11.5466
▁emotions	-11.5466
▁कळले	-11.5469
▁नीती	-11.5469
45	-11.5473
▁नाट्य	-11.5474
▁एनआरसी	-11.5474
▁generally	-11.5476
▁engineer	-11.5477
▁बरा	-11.5477
▁accidental	-11.5478
▁united	-11.5479
▁assaulted	-11.548
IM	-11.5486
▁वाढू	-11.5486
▁तंत्र	-11.5486
योग्य	-11.549
▁टॅक्सी	-11.5491
▁पेशी	-11.5492
right	-11.5492
▁निर्णयामुळे	-11.5495
▁पॉ	-11.5495
▁Unit	-11.5496
ंका	-11.5498
▁मुख	-11.5501
▁क्षेत्राला	-11.5502
▁एड	-11.5503
▁कमांड	-11.5503
▁Bel	-11.5503
र्म	-11.5506
MT	-11.5508
▁समारंभ	-11.5509
▁वापरला	-11.551
खो	-11.5511
▁8,	-11.5514
78	-11.5515
▁Hebrews	-11.5517
▁watched	-11.5518
▁परा	-11.5519
▁स्वच्छते	-11.552
▁पकडले	-11.5523
ॉड	-11.5525
ांश	-11.5526
▁निव्व	-11.5527
▁शकतं	-11.5528
ोज	-11.5534
▁Mal	-11.5535
▁पाडले	-11.5537
▁दीप	-11.554
▁मिनिट	-11.5541
▁धर्माच्या	-11.5543
▁निर्देशांक	-11.5544
मेक	-11.5545
bound	-11.5549
लंड	-11.5551
▁Jay	-11.5552
▁relation	-11.5554
पाटील	-11.5555
▁rounds	-11.5555
तिक	-11.5556
▁संस्कृत	-11.5557
▁परी	-11.556
ज्या	-11.5563
▁मधल्या	-11.5565
▁Jaish	-11.5567
▁Gram	-11.557
▁Sat	-11.5571
kant	-11.5572
▁foods	-11.5574
ांप्रमाणे	-11.5579
▁पोलीसांनी	-11.558
PC	-11.558
ॉक	-11.558
▁रोल	-11.5581
atch	-11.5584
▁पाण	-11.5584
▁राजू	-11.5586
90	-11.5587
ुड	-11.559
▁arent	-11.5593
तन	-11.5593
▁likes	-11.5597
▁तयारीत	-11.5604
▁४१	-11.5606
▁ca	-11.5611
▁Adv	-11.5614
▁center	-11.5615
▁telling	-11.562
▁transform	-11.5623
ंबरोबर	-11.5625
▁बॉल	-11.5629
▁बसणार	-11.563
NE	-11.5634
▁grave	-11.5635
▁ब्रा	-11.564
▁recognise	-11.564
▁कॉन्फरन्स	-11.564
▁corrupt	-11.564
▁मिळवू	-11.5641
▁Britain	-11.5642
▁Gehlot	-11.5642
▁Kaushal	-11.5642
▁Michael	-11.5642
▁Rhea	-11.5642
▁Safety	-11.5642
▁civic	-11.5642
▁cultivate	-11.5642
▁distancing	-11.5642
▁entrance	-11.5642
▁pattern	-11.5642
▁plenty	-11.5642
▁registration	-11.5642
▁चंद्रशेखर	-11.5642
▁तुमचं	-11.5642
▁तेजस्वी	-11.5642
▁तेलुगू	-11.5642
▁दुष्परिणाम	-11.5642
▁नव्हत्या	-11.5642
▁निविदा	-11.5642
▁पुनरागमन	-11.5642
▁लॉन्च	-11.5642
▁स्टोरेज	-11.5642
▁आम्हांला	-11.5642
▁plain	-11.5642
▁pleasant	-11.5642
▁Bhagwat	-11.5642
▁Pension	-11.5642
▁pledge	-11.5642
▁HDFC	-11.5642
▁माधव	-11.5642
▁पराक्रम	-11.5642
▁sovereignty	-11.5642
▁chairperson	-11.5642
▁Prithviraj	-11.5642
▁flock	-11.5642
▁proclaim	-11.5642
▁फायदेशीर	-11.5642
▁लष्करप्रमुख	-11.5642
▁गुंडाळ	-11.5642
▁हल्लाबोल	-11.5642
्ग	-11.5643
▁२०११	-11.5643
▁plot	-11.5643
▁म्हणालो	-11.5643
▁ठरविले	-11.5643
▁Sania	-11.5645
▁नातेवाईकां	-11.5645
▁स्थलांतरित	-11.5645
▁व्हिसा	-11.5646
▁व्हावा	-11.5647
▁मिलिंद	-11.5647
▁तशा	-11.5648
▁शेतकऱ्यांन	-11.5648
▁Kapur	-11.5648
stern	-11.5649
▁2001	-11.5649
▁nab	-11.5649
▁परंतू	-11.565
▁asserted	-11.565
▁taluka	-11.565
▁researchers	-11.5651
▁Ye	-11.5651
▁परिसरा	-11.5652
▁कार्यकर्त्यांना	-11.5652
▁error	-11.5652
▁कवी	-11.5654
बार	-11.5654
sco	-11.5655
▁लागवड	-11.5656
▁वायु	-11.5656
▁bore	-11.5656
▁controlled	-11.5656
मंडळ	-11.5657
▁makers	-11.5657
▁escaped	-11.5657
▁USD	-11.5657
▁Free	-11.5659
ासंदर्भात	-11.566
▁upper	-11.5661
▁बदलला	-11.5663
▁३८	-11.5663
iah	-11.5664
▁अरब	-11.5664
▁ब्लॉक	-11.5665
र्व	-11.5666
▁आवडतं	-11.5666
▁श्रेयस	-11.5668
▁partners	-11.5669
▁रंगणार	-11.567
▁काना	-11.567
ऑ	-11.5671
▁वडिल	-11.5675
▁pacer	-11.5676
▁धरून	-11.5677
yn	-11.5681
रक्षक	-11.5681
▁पर्	-11.5682
▁princes	-11.5682
▁थक	-11.5683
ठे	-11.5684
▁Need	-11.5685
▁accordingly	-11.5686
▁शास्त्रीय	-11.5688
▁पद्म	-11.569
▁बसपा	-11.5691
▁farming	-11.5692
hang	-11.5693
▁involves	-11.5695
▁टिप	-11.5697
पीएस	-11.5697
▁वंशज	-11.5698
▁वृद्धी	-11.5698
▁Chet	-11.57
▁दादा	-11.57
भूमी	-11.5702
▁पोहचले	-11.5702
▁विभाजन	-11.5709
निर्धारित	-11.5713
▁समुदाय	-11.5714
▁CA	-11.5717
▁preparations	-11.5717
शाही	-11.5719
▁संदेष्ट्या	-11.572
मोद	-11.5723
▁दोघा	-11.5727
▁भंग	-11.5734
▁संकेतस्थळ	-11.574
▁मंजूरी	-11.5746
▁जीवनाचा	-11.5746
▁पावला	-11.575
▁यो	-11.575
▁कोर्ट	-11.5751
राय	-11.5752
▁थर	-11.5754
मध	-11.5756
घाट	-11.5757
wicket	-11.5757
▁कोणाचा	-11.5757
पुरुष	-11.5757
brand	-11.5757
शस्त्र	-11.5758
▁civilian	-11.5762
▁शोधण्या	-11.5762
▁SA	-11.5762
bel	-11.5764
ातच	-11.5768
तेय	-11.5769
▁बनविण्या	-11.577
▁प्रकरणावर	-11.5771
41	-11.5771
▁ideal	-11.5772
▁Spirit	-11.5772
▁संपव	-11.5772
▁मालकी	-11.5773
खिल	-11.5774
preet	-11.5774
play	-11.5776
▁Acts	-11.5779
▁विमानात	-11.5784
▁गण	-11.5785
54	-11.5785
▁एवढेच	-11.5786
यांनी	-11.5788
ितो	-11.5789
▁नयेत	-11.5789
▁कुटुंबीयां	-11.5789
▁कामावर	-11.5791
▁Abu	-11.5792
▁खाक	-11.5794
खल	-11.5795
29	-11.5799
▁ward	-11.58
बंद	-11.5802
▁पक्षाध्यक्ष	-11.5803
थर	-11.5803
▁पू	-11.5803
grad	-11.5804
▁प्रयत्नांना	-11.5804
▁बनवि	-11.5807
▁वध	-11.5809
▁तिघां	-11.581
▁सकाळ	-11.5811
▁रॅम	-11.5812
gov	-11.5822
दू	-11.5828
आज	-11.5829
list	-11.5829
प्रीत	-11.5829
तेला	-11.5834
▁महोत्सवात	-11.5837
”,	-11.5838
३०	-11.5838
▁104	-11.584
▁सोडण्या	-11.5842
▁unfortunate	-11.5843
▁rapid	-11.5843
कृष्ण	-11.5845
▁Mari	-11.5845
▁manifest	-11.5848
▁pension	-11.5848
▁parliament	-11.585
▁विसरू	-11.585
▁लघु	-11.585
Yuzvendra	-11.585
▁Assistant	-11.585
▁episode	-11.585
▁injustice	-11.585
▁integral	-11.585
▁maiden	-11.585
▁temporary	-11.585
▁universities	-11.585
▁गोगोई	-11.585
▁देखभाल	-11.585
▁मालदीव	-11.585
▁रक्तदाब	-11.585
▁रौप्य	-11.585
▁शानदार	-11.585
▁तितकी	-11.585
▁boat	-11.585
▁intense	-11.585
▁तुफान	-11.585
▁अभिवचन	-11.585
▁टायगर	-11.5851
▁बुद्धिमान	-11.5851
▁पुनः	-11.5851
▁संयम	-11.5851
▁Satish	-11.5851
्विक	-11.5851
▁श्रीकांत	-11.5851
▁Dubai	-11.5851
▁रिमेक	-11.5851
▁सुवार्ता	-11.5851
▁राष्ट्रकुल	-11.5851
▁अय्यर	-11.5851
▁temples	-11.5851
▁Press	-11.5852
ाधीन	-11.5852
▁bitter	-11.5852
▁Lakh	-11.5852
▁persist	-11.5852
▁percentage	-11.5852
▁घराबाहेर	-11.5853
▁गोळी	-11.5853
▁संपादन	-11.5853
▁amendment	-11.5854
मुख	-11.5855
▁आणणे	-11.5855
▁witnesses	-11.5856
▁सुधारण्यासाठी	-11.5857
▁swearing	-11.5857
▁जरूर	-11.5857
▁विकार	-11.5858
▁अपघातानंतर	-11.5859
▁खेळताना	-11.5859
ष्ण	-11.5861
▁Learn	-11.5861
▁availability	-11.5863
▁Try	-11.5864
िरा	-11.5865
▁locked	-11.5866
▁railways	-11.5866
▁arch	-11.5866
ुब	-11.5867
▁secured	-11.5867
▁Var	-11.5869
▁स्त्रोत	-11.5869
▁risen	-11.587
▁copy	-11.587
▁स्थित	-11.587
▁भेटायला	-11.5871
gla	-11.5871
▁profile	-11.5873
▁कामगारांना	-11.5875
rie	-11.5875
As	-11.5875
▁facts	-11.5878
▁bowled	-11.5878
▁सोपी	-11.5878
▁झाल्याचं	-11.5879
सार	-11.5879
▁रेखा	-11.5881
ुण	-11.5884
▁दूत	-11.5887
▁Teachers	-11.5888
▁नीति	-11.5889
▁succeeded	-11.5889
▁samples	-11.5889
▁त्यांच्याबरोबर	-11.5889
final	-11.5889
wala	-11.5892
▁लु	-11.5892
▁parking	-11.5892
नामा	-11.5893
▁मुलांचे	-11.5894
▁सैन्याने	-11.5895
▁spending	-11.5899
▁Muk	-11.5899
▁Bengali	-11.59
▁Paris	-11.5911
▁images	-11.5916
▁Shir	-11.5916
▁stages	-11.5921
व्यतिरिक्त	-11.5923
▁परमेश्‍वरा	-11.5924
▁शिकवणी	-11.5925
▁पर्यटकां	-11.5928
▁entering	-11.5929
▁wash	-11.5929
▁focused	-11.5929
▁जै	-11.593
▁रन	-11.5931
▁चालवण्या	-11.5932
▁शिवसेनेचा	-11.5936
▁गाड्यां	-11.5936
रंग	-11.5939
▁selfie	-11.594
▁मंडळाच्या	-11.594
▁गेलं	-11.594
▁काँग्रेसकडून	-11.5941
slated	-11.5941
▁वापरा	-11.5942
NS	-11.5949
vert	-11.5951
▁प्रयत्नात	-11.5957
▁adding	-11.5958
▁व्य	-11.596
▁Bur	-11.5961
aries	-11.5961
▁मेन	-11.5961
▁वर्तवण्या	-11.5963
lim	-11.5963
▁याप्रकरणा	-11.5966
▁सांगणार	-11.5967
wealth	-11.5969
ाहेत	-11.5969
captain	-11.597
काँग्रेस	-11.597
field	-11.597
▁methods	-11.5973
ियर	-11.5974
ढे	-11.5974
ावेळी	-11.5974
▁activist	-11.5974
▁partys	-11.5977
द्द	-11.5978
ासारखे	-11.5979
▁सिर	-11.598
eena	-11.5982
▁bath	-11.5984
▁ओळखत	-11.5991
▁sites	-11.5992
▁उठव	-11.5993
▁पोह	-11.5994
▁Nation	-11.5995
सिड	-11.5996
▁73	-11.6
ाली	-11.6
68	-11.6002
▁Para	-11.6004
▁अ‍ॅड	-11.6005
AL	-11.6006
▁Tak	-11.6012
▁अत	-11.6013
▁वचनात	-11.6013
▁महिन्यांत	-11.6019
▁BS	-11.6021
PP	-11.6023
▁निघ	-11.6025
▁देखरेख	-11.6025
▁पॉल	-11.6026
▁अर्	-11.6028
ोद	-11.6029
रन	-11.603
RC	-11.6031
▁deserve	-11.6032
▁फिर्यादी	-11.6036
▁आलेलं	-11.6036
▁mari	-11.6037
bit	-11.6042
▁चॅम्पियन	-11.6046
▁reign	-11.6047
क्ल	-11.6052
▁resume	-11.6055
rk	-11.6058
▁Big	-11.6058
▁PMs	-11.6058
▁इंडस्ट्री	-11.6061
▁Tan	-11.6061
▁अवयव	-11.6063
▁Hussain	-11.6063
▁Kashyap	-11.6063
▁Masood	-11.6063
▁Sidharth	-11.6063
▁Spanish	-11.6063
▁celebrating	-11.6063
▁climb	-11.6063
▁conspiracy	-11.6063
▁constable	-11.6063
▁eligible	-11.6063
▁gratitude	-11.6063
▁memorial	-11.6063
▁nominee	-11.6063
▁workshop	-11.6063
▁आशिष	-11.6063
▁आश्रय	-11.6063
▁ओवेसी	-11.6063
▁जनजागृती	-11.6063
▁टँकर	-11.6063
▁थोडक्यात	-11.6063
▁निदर्शने	-11.6063
▁प्रोजेक्ट	-11.6063
▁बांग्लादेश	-11.6063
▁रविशंकर	-11.6063
▁cyber	-11.6063
▁रकमे	-11.6063
▁Pooja	-11.6063
▁रैना	-11.6063
▁छावणी	-11.6063
▁consumption	-11.6063
▁laundering	-11.6063
▁software	-11.6063
▁Babasaheb	-11.6063
▁ईश्वर	-11.6063
▁मुलगे	-11.6063
▁ऑस्कर	-11.6063
[...]
